/**
  ******************************************************************************
  * @file    network_data_params.c
  * @author  AST Embedded Analytics Research Platform
  * @date    Mon Feb 26 21:44:59 2024
  * @brief   AI Tool Automatic Code Generator for Embedded NN computing
  ******************************************************************************
  * Copyright (c) 2024 STMicroelectronics.
  * All rights reserved.
  *
  * This software is licensed under terms that can be found in the LICENSE file
  * in the root directory of this software component.
  * If no LICENSE file comes with this software, it is provided AS-IS.
  ******************************************************************************
  */

#include "network_data_params.h"


/**  Activations Section  ****************************************************/
ai_handle g_network_activations_table[1 + 2] = {
  AI_HANDLE_PTR(AI_MAGIC_MARKER),
  AI_HANDLE_PTR(NULL),
  AI_HANDLE_PTR(AI_MAGIC_MARKER),
};




/**  Weights Section  ********************************************************/
AI_ALIGNED(32)
const ai_u64 s_network_weights_array_u64[5426] = {
  0xbcc838683d22b8a4U, 0x3d9e9448bcd04188U, 0xbf59d9f1bf044652U, 0x3cb0643b3d8ba5c1U,
  0x3d21dd543cdf81b0U, 0xbf35c444bf37bbf1U, 0x3d74f2d43e0b66efU, 0xbdc619f63d89b34aU,
  0xbdc96dbc3db50a99U, 0x3d942e243c2beb27U, 0xbb043080bc9c6630U, 0x3cb936993d11cebaU,
  0xbf3c23ccbf27e9c9U, 0xbf1046edbefdebedU, 0xbddc95ac3d3712c8U, 0xbe3e821e38ba8b5eU,
  0xbf12dad1bf1305f1U, 0xbcf27bda3d436b15U, 0x3b53c7c03e153157U, 0xbdbe754c3e0682c3U,
  0xbf3d7bbcbf01de34U, 0x3d2db480bdedc684U, 0x3ddf80f63e18c9bdU, 0xbf3ae362bf5b33a6U,
  0xbc8416883e2fd98dU, 0xbaafd600bc85fc60U, 0xbeda4d3bbeffcc51U, 0xbd148a9cbe27def7U,
  0xbe4ac006be9d836aU, 0xbdba569c3d34a98aU, 0xbf31f1e9bf43382dU, 0x3db874abbdffc9d3U,
  0xbf61ec8cbf234756U, 0xbd8246913dfc4923U, 0x3ba020c03d4f0028U, 0x3d98102b3e28c8ebU,
  0xbe9b5c5abce0ae26U, 0xbf3ba4dabf15377dU, 0xbd8220cb3e21b11dU, 0x3c5990993e0e6cbcU,
  0xbf8521b2bf11151dU, 0x3e155b81bdb3738eU, 0xbf6bde45bf6648b8U, 0xbf7941cfbf37b044U,
  0x3d88a3a23e0546c3U, 0xbf23f870bf44e7eaU, 0xbe2533ebbe42d0d9U, 0xbf7d2c87bf36ab62U,
  0xbde28384be571e43U, 0x3d9b38c4bdf0db12U, 0xbc83a5b83e1af57fU, 0x3d599ce03e2b452fU,
  0xbd8851933bb8be00U, 0x3e2cacfdbe118d90U, 0x3d962d70bd828627U, 0xbb280280be2aeb5eU,
  0x3e05caffbc0b0500U, 0xbe1c5f933e01b45dU, 0x3dbad7d2bdeac741U, 0xbe1c3e81be2c4d58U,
  0x3dda3b6abe0db3e5U, 0xbe09f7e2bd90c5e9U, 0x3c3b23903de53b6eU, 0x3d67e76cbdd00083U,
  0xbda6d6e63e2ae2e9U, 0x3d060d64be0fc48bU, 0x3e005469bd45b328U, 0x3e070413bd0f04d4U,
  0xbd41b1183de0bdb2U, 0x3cea93f8bd9de349U, 0x3ca68e48bdb7f0c1U, 0xbdceacd2bda378adU,
  0xbd4afd883c634800U, 0x3d0eaac43ddf6702U, 0xbdedc2e53de66446U, 0x3ded40463e02b0b3U,
  0xbcbc64083e2eb697U, 0xbd5af99ebd4996aaU, 0x3d425f80bde60e82U, 0x3cd0d8d8bddb2a4eU,
  0xbddfaf5ebe040998U, 0x3deccbca3e0c0c9bU, 0x3e03cc09bda06906U, 0x3d963b4a3d93060aU,
  0x3e0793633daaf1aaU, 0xbe00b511be1c1a7cU, 0xbcef69d8be128c6eU, 0x3da4f4b23d9e5e68U,
  0x3cd988b8bde7aef6U, 0xbe1999993d358a70U, 0x3de46dc2bd1a989cU, 0x3e1441c7bd156bbcU,
  0xbe0df3f23d3fcfbcU, 0xbd1fc8243db8870aU, 0x3cc0ee00bda9eef5U, 0xbe274719bd9609a7U,
  0x3e0a2a25be170bfdU, 0x3e25c12b3dee070eU, 0xbdf6777a3e2a4cbbU, 0x3d14d4543aed9800U,
  0xbd39b9a4bc26ba10U, 0xbe160111bd0d321cU, 0xbdd8dea5bd84c779U, 0x3dded7a43d4186c2U,
  0xbe05c547bd993f8cU, 0xbdf438f2bd65816bU, 0xbe20b435bdb201caU, 0xbe0328ea3d442348U,
  0x3db0d696be35e7ddU, 0xbe12960f3da39530U, 0xbc743d10bdafdbe1U, 0x3d3e83aebc606288U,
  0xbdfd4969be2fbd2eU, 0xbd19de29bddb60fcU, 0xbd652bb4bd40d2b8U, 0x3d96ba433d933263U,
  0xbdf770d2bd023007U, 0x3c85ee08bcfd0894U, 0xbc697910bc9c4308U, 0xbd2e7a7cbc48e540U,
  0xbde80c22be805d12U, 0xbdc86447bd2a58ecU, 0xbe0d1015be275db8U, 0xbdad5139bdbb99edU,
  0xbd0c4bfcbd0ab9e8U, 0xbd3b6f30bdf2f680U, 0xbdf7f071bde87c10U, 0xbe1551b7be2cfc70U,
  0x3ccef84a3dd0dfc5U, 0xbe19c9ad3c5fa365U, 0xbdc72194be66dcc7U, 0x3ca9db47be4e62a0U,
  0xbe7a2e33bd999e6bU, 0xbba51be1be48e36fU, 0xbbf39fc0bdd03334U, 0x3d10add8be3fcf11U,
  0xbb1e0c903db9e2b6U, 0xbe77a0ddbe4e59ffU, 0xbe051d7abd107b3cU, 0x3b09854bbd6e9facU,
  0xbe8248a6bd02df43U, 0xbe06a9a0be2da989U, 0xbe5860d8be37cc56U, 0xbe8553d53b84e966U,
  0xbcedaf88bdd08b6cU, 0xbe0124f7bd613444U, 0xbd488adf3d8d660eU, 0xbe767ae7bddc803eU,
  0xbe2a19eb3d82334cU, 0x3cb9be0dbe22f73aU, 0xbcc565983e2905b5U, 0x3e10fb713e25a505U,
  0xbf391a4ebf29a046U, 0xbd130f7e3c4967c4U, 0x3df53a623c9ade48U, 0xbf47d535bf065f93U,
  0x3c2759d03d24eb64U, 0x3dda11d2bd1cd676U, 0xbdd7ae9cbe080f1fU, 0xbd68ac78be3d0b3aU,
  0x3e2330a33e21f72fU, 0xbe44a76abdcd23bbU, 0xbf416bf8bf0019daU, 0xbf4004f6bf0e08efU,
  0xbe2baab43e2443d5U, 0xbe2a05fbbe0e6fa9U, 0xbf2ccbf4bf3a1388U, 0xbe099b953dbbb0aaU,
  0x3e20bf533e10d30fU, 0x3e18034bbe27bed3U, 0xbef11a05bef78ee3U, 0xbd82bd27bd6e65eaU,
  0xbe0043843e1581abU, 0xbf18e9c2bf342ec3U, 0xbda5a9673c5efcd0U, 0xbd86938bbdf2e344U,
  0xbf22e9a8bf1bfff5U, 0x3d7c08bc3df4449eU, 0xbe909f7bbe6ea8bfU, 0x3dc951fd3ccfd94cU,
  0xbf400382bf2d7257U, 0xbd69952cbdfe6efeU, 0xbf2db5a8bf4ee9d8U, 0x3d953c62bd488605U,
  0x3e2f863f3da59dc6U, 0x3dce9cefbd9dcf6cU, 0xbea38761bdf49f89U, 0xbf5f8122bf0e1ca5U,
  0x3d0e79d4bdc6b1fdU, 0x3e20fa723dfd0a95U, 0xbf86565abf5f6744U, 0xbd45d9963dd07012U,
  0xbf41b17ebf50e0c5U, 0xbf4d3a3abf3d0719U, 0xbb0c1e003e24ae11U, 0xbf0cd7a8bf3c01fcU,
  0xbe9bfa19bda6283eU, 0xbf5a0774bee4865cU, 0xbde9437c3be9ee94U, 0x3e1e3461bd249410U,
  0x3e58a8aabde81ee0U, 0xbd52993d3de1677cU, 0xbd28df67bcf77b47U, 0x3bbc1761bdb16021U,
  0xbdfdd019bc085db8U, 0xbd3494e43c91a2f4U, 0x3d4c27063c062972U, 0x3cb42ac43d49c740U,
  0x3e2ea50cbda5044cU, 0xbdb032713d667e15U, 0xbd8efac43db167fbU, 0xbc9f06ecbcd9c264U,
  0xbc669c04bd692c14U, 0xbcaa2a383df0fbcfU, 0x3d8f196e3d8e8fa2U, 0xbdcf41ae3d1e0608U,
  0x3d184f9dbd6e1e7fU, 0xbd4b5dcc3d232499U, 0xbdfd9f343df31935U, 0x3dac23543e34b07bU,
  0xbd2e5387bd10ba67U, 0x3d18a1653ce53119U, 0xbceee7263d4a2980U, 0x3d863af13d6d96ccU,
  0x3da8a6843d4b2ba5U, 0xbc87de00bd5378d2U, 0x3da8fe9d3ddf93a5U, 0x3a58610cbe2dee63U,
  0xbd6a6da3bd85bcb6U, 0x3bb218573d9b1421U, 0x3dbc5205bdbdd2cdU, 0x3cdd2ea93d2cb008U,
  0x3c9f444ebbcfbf15U, 0xbd7c37663d946500U, 0xbc5414acbe21457aU, 0xbd3c02ff3d92a693U,
  0x3b92c9243cbba20cU, 0x3dc84ec7bbeeb25cU, 0x3deca57d3ce183d3U, 0x3df30e62bd74172aU,
  0x3d79ab51bd0e0501U, 0xbdc9d09a3d275ed2U, 0x3db32e99bdf624c5U, 0x3d10f323bda1b874U,
  0xbe0cb004bc690962U, 0x3d970de4bd855c27U, 0xbd2a8eefbd500002U, 0xbd182195bd399508U,
  0xbd790de4bc43fd2dU, 0xbcd7d4353e1c437dU, 0xbd331090bd21a0ebU, 0x3d1d07aebbcb8800U,
  0xbdf2aa1abd1c4d3eU, 0x3bd31bc1be39adc2U, 0x3d52b464bd27ea2fU, 0xbd26de29bb8ba56aU,
  0x3d5afd58bd60f23fU, 0x3da1e0543ced8954U, 0xbcaf9cb4bc0e2610U, 0x3cdb82a3bc71e79aU,
  0xbcff5338bcaf425cU, 0x3da6bc01bc8c25abU, 0xbc845bec3e00f834U, 0x3d395dd33b255268U,
  0xbd4a17163ce37832U, 0xbc18b542bd290da0U, 0xbe37d0d039ce25f0U, 0xbcc6a6aebcd3a275U,
  0xbdfd10143d9e6256U, 0xbd2dda603d3d2135U, 0xbdb10cb6bd7880daU, 0xbc73063fbbef75c3U,
  0xbd9f9b803d305d1aU, 0x3d05d25c3d404dabU, 0x3e0885b6be0e39c9U, 0x3d7159123d49d3e3U,
  0xbc2204803dac870eU, 0x3d61774c3d8146e4U, 0x38afb9c0bdabb48eU, 0xbe0f3bfe3d1cf39aU,
  0xbd5bfad63cd96a16U, 0xbd45a6443c97aa1dU, 0x3cf9ec45bb0a2894U, 0xbd9de70abc89e476U,
  0xbd936cacbc40be18U, 0x3be0bf843dc81ddaU, 0x3dc95a903cd806dfU, 0x3dfb10d8bdc6fa28U,
  0xbdabef2ebd4a601eU, 0x3c586e16bd990f43U, 0xbd1d30e13de6b13dU, 0x3dd38e9d3cd5d1e6U,
  0xbdf0f2bb3dce7616U, 0xbe0eed183c8ba349U, 0xbdac0842bd99b0c7U, 0xbd79ffbb3e06fb58U,
  0x3d1e26cd3abdb39aU, 0xbc9287923b5bcf39U, 0x3e07bbad3e507f49U, 0xbd547615bd09ec7cU,
  0xbaa54de03ce03316U, 0xbccf536c3d30801aU, 0xbd2049fb3ca18800U, 0x3cf9297dbcc268d6U,
  0x3c874c123df00866U, 0xbdfd09c43c296cc2U, 0x3dc041cbbc209f8eU, 0xbd99f6bd3c75ec39U,
  0x3dd0410abde04603U, 0xbd22540cbda1c28cU, 0xbce0941ebd8e4df5U, 0xbdbd4f0abcc86484U,
  0x3e1a9a723e075faeU, 0xbcbec1503dbadf52U, 0xbd84c968bbd6fc6bU, 0xbc8cfcd9bd7caaf9U,
  0xbcae25973e01dcdcU, 0xbd52ee19bcdd5661U, 0x3daac3db3d9cf88dU, 0xbd11825e3cb616dbU,
  0xbba8de0a3d94a4beU, 0x3d57eb36bdbc5c69U, 0xbd662a22bd4779acU, 0xbba087b23ca04b2aU,
  0x3d4e0b7d3d1a7aabU, 0xbce4d556bd2d73e0U, 0x3d5705a0bc54e30aU, 0xbd9b3b103d0618f9U,
  0x3dedd13bbb15044aU, 0xbde3a5c8bd4eb88cU, 0xbca927a43cde0d2dU, 0x3cc9350cbd943616U,
  0xbc68d62bbb88d8e3U, 0xbc98b769bdf40a8aU, 0xbda3a3a0bdc2e13fU, 0x3c7d7ce2bd417b4dU,
  0x3d85ffae3dc50615U, 0x3e290d123c96922bU, 0xbd309e8a3dad7f1eU, 0x3c1377323cb9f7d2U,
  0x3da0cfe83d041f62U, 0x3cf519e23ce35403U, 0xbc5dc6883db0967bU, 0x3d3bb4f63cd99ca1U,
  0x3d74143dbdbb8f49U, 0x3e1bec433bfcc540U, 0xbe0c9e2abcd0ce82U, 0x3e1833633dc72f44U,
  0xbb1e6d4abd278336U, 0xbe6223c63d976cd9U, 0xbd89d37fbd3c53bfU, 0xbdca7234bb70dfa8U,
  0x3d51e35ebd0b2298U, 0x3d40dc6ebdf444b0U, 0x3d05e4e6bb8bc0a8U, 0xbca3d432b9a20440U,
  0xbd6d59863dfc3908U, 0x3d5b81383ca504eeU, 0xbc842a62bd042fd0U, 0xbd2e16913d5b2048U,
  0xbb02f0803bd4949cU, 0xbb9840443d291676U, 0xbd440be43c773c44U, 0x3d808651bdfbef92U,
  0xbe0e85c3be287734U, 0xbd061190bd23b333U, 0x3d897eb33e057b4aU, 0x3d50f9aa3c7119e5U,
  0x3c867b893dabd123U, 0xbc60f00ebd047bbdU, 0xbc05db093c4d3ebeU, 0x3d0c631d3d3d2e21U,
  0xbdabfa1fbc86710eU, 0xbc9fafd83e0e08f8U, 0xbdc70e0ebc72e61fU, 0x3d62fd8b3c68d995U,
  0xbd99ad60bc79ce0cU, 0x3e4d1838bb479718U, 0x3d091d80bc607549U, 0xbd06944b3d89f949U,
  0x3c5983de3d573719U, 0xbcea9127bda5da8cU, 0xbd70ab713d966a30U, 0x3d000767bdb65a3cU,
  0xbdbdda46bd25590aU, 0x3d972881bc5f082dU, 0xbd0790efbdd5d048U, 0xbd6eb422bd945316U,
  0x3d52834ebba5a160U, 0xbd2df5e83e168e0dU, 0x3c9b997ebd3c003bU, 0xbce788263e124aedU,
  0x3e59ece4bc9dfa4cU, 0xbcaa66333b57bc78U, 0x3d4259f13d26800eU, 0xbd732bdc3d3336f5U,
  0x3e21c3f9bd9fa3c4U, 0x3d1ab25c3bffa79aU, 0x3c6fcdfe39d2ce00U, 0xbd692b1d3cc268f2U,
  0xbd652dc0bd3f9b85U, 0x3d9306033d6c4395U, 0xbca42e47bd12cd5dU, 0xbdd4394fbd9f212aU,
  0xbd0ffe923c2a7800U, 0xbd577c263d80e2faU, 0x3bf30fedbcb9a0d6U, 0xbe068f6fbdd8404cU,
  0x3d6d9d883ca6eb0aU, 0xbd604aa63da33db6U, 0x3e0f689abcabb567U, 0x3d2e2b1c3aaaedc0U,
  0x3d3ebbee3d991e2cU, 0x3dcc70edbe06ba49U, 0x3c26aeebbe006f79U, 0x3dd9dfd7bc43faa8U,
  0x3d6d487c3d90e63dU, 0x3d9afe8a3d5128d2U, 0x3c90f4383dc2d8b0U, 0xbc95a5ed3d907313U,
  0x3d98d9e73d9db16eU, 0xbc6ca494bd22d413U, 0x3d21fcfc3e123ce0U, 0xbe00afb33bfd4dbeU,
  0x3c32762fbd9d29e2U, 0xbda695d33c4e9e84U, 0xbca97d2f3dedbb74U, 0xbc241070bd77416eU,
  0x3d6f3fbdbdb10788U, 0xbe1cd6a03e02a593U, 0x3da859fb3e4401f1U, 0x3cd9b2fcbda668a5U,
  0x3e1013503b3dbb30U, 0xbb2100dc3da4931fU, 0x3da01b1e3d52450bU, 0xbcc091a0bd088e7bU,
  0xbd6c739c3c4d3192U, 0xbd49fe483cce238fU, 0xbc06ee1cbcbfc0abU, 0x3d89fdf1380ade00U,
  0xbab7aba0bd20cc52U, 0x3d855214bd87e265U, 0xbcfa326a3da5a3fdU, 0x3dc5b5c7bdf0cfcdU,
  0xbe0b1a0e3df2373dU, 0xbcdacdcd3db78321U, 0xbc67323cbd68dd51U, 0x3d6411f8bbbb8d6cU,
  0x3c5158ecbd96b862U, 0xbcc66c383c58e21aU, 0x3b2d2d4a3cdc735bU, 0x3ba2b78dbdb95e22U,
  0xbcef55b6bc3917d5U, 0xbc3230b4bd80fc6eU, 0x3e2252abbadc8c98U, 0xbde0e05a3d28f220U,
  0x3d04c2b73d741a63U, 0xbdb6d1553df63c93U, 0xbce80a22bdc2a55aU, 0x3d82f2bbbdaa987fU,
  0xbc162706bdaef160U, 0xbcb32adfbd658cacU, 0xbdf15395bd54da7bU, 0xbd6cbe7bbd0df9deU,
  0xbd05c54c3bf97a12U, 0xbd2d45ab3ccd5a0bU, 0x3d9961f33d3491a6U, 0x3d2b1f503ddd68cbU,
  0x3c73e780bd56aa53U, 0x3cce3a8bbd9b2cbbU, 0x3be6d5d83dce7b47U, 0xbd13ffd63d141f59U,
  0xbdd660e1bd4dabfdU, 0x3b179010bd91a125U, 0x3d5b132e3d71a4b0U, 0xbc044b5c3c2dece3U,
  0x3d62d0b63cc72ea8U, 0xbda823193c2c1cbdU, 0x3d7373b8bd5b8caeU, 0x3c0651523e14133eU,
  0x3e0363903d4b696cU, 0xbdede678392c6700U, 0xbd1a34bcbd11adf1U, 0xbcd44fec3d7f2eb8U,
  0x3d419d75bbe655cbU, 0x3cdae1ca3da3bffeU, 0xbdb3b4c3bc8c9e98U, 0xbd1e7d0b3d93b75cU,
  0xbd7663293cae6ccaU, 0x3d4320da3b331bc8U, 0x3da2d6aa3d45a0d6U, 0xbd2368fcbdfaa97fU,
  0x3c10e284bd7bce9aU, 0xbdbd1d2d3d81c6afU, 0xbb898b78bd0319abU, 0x3d427983be093e3eU,
  0xbcc738243e05af89U, 0xbd6f79c03dcccd72U, 0xb985c980bd3e6ca8U, 0xbc6fbe203de8ecc6U,
  0x3aecadb03d0a9a2dU, 0xbe15cea63d9934b1U, 0x3c9c3cedbdd1ef65U, 0x3df426d2bdc80291U,
  0x3d518093bd08a836U, 0xbce870fabcc84672U, 0xbd3e6149bc0bc500U, 0x3d3ad51bbd5eb25bU,
  0x3ca7b14ebc03942aU, 0x3deba8da3d677c48U, 0x3dd44c0a3e0500e5U, 0x3cb0ec2dbc18d899U,
  0xbcc75838bd4adad2U, 0x3b8c2dc6bd1071eeU, 0xbc9fa7a9bcc46a25U, 0xbd57f0853bb16338U,
  0x3d755e18bd89db40U, 0xbd84925abdcfe80bU, 0xbdc766df3dc01537U, 0xbe153f28bcc35618U,
  0x3dbac6773d6000cdU, 0x3d8b63e6bd6770b0U, 0x3d83dcb9bdbbb257U, 0x3d77796f3bc2cad8U,
  0xbd9c026abcd457edU, 0xbda58ea33c87a975U, 0xbdc47182bc41df90U, 0x3c456c533d9ae66cU,
  0x3d8bd3d5bbd14a9aU, 0xbd7a9a3a3d99e242U, 0x3ce3b8f23c080134U, 0x3cfebbc0bd0db02fU,
  0xbd879f2a3ae2591eU, 0xbd8482423bb9abfeU, 0xbda3e58d3cda3ab5U, 0x3cc629e13d657442U,
  0x3d1c13dc3e1364aaU, 0xbd0c82583ce35d2cU, 0xbd0ff4b13c8565b5U, 0xbd5b53a2bdf638ceU,
  0x3da9a33b3e2ac052U, 0x39c84b30bc8e5391U, 0x3dce3779bd8fd374U, 0x3c174f92ba712540U,
  0xbca390443d937289U, 0x3cd7a5663d8ca615U, 0xbdb4c7983cda2f8fU, 0x3cb1d3733d0a9ca2U,
  0xbe629569bcbddf50U, 0x3d1ea76c3ceaf638U, 0xbccaec3d3d35761bU, 0xbd3649643d5a2416U,
  0x3d5ea61dbdbef816U, 0xbc6e8d10bdcf0b1dU, 0xbb6db55cbd1eadb4U, 0x3dfe5652bd016e60U,
  0x3da4277abd080064U, 0xbd8b7b2abd191840U, 0xbde3969dbd94164eU, 0x3d96d9eebd77198eU,
  0x3daa4a39bdc372a9U, 0x3d090b373db34340U, 0xbd93c1fc3c69cc35U, 0x3d862865bc823e22U,
  0xbbe8b1353cbcf0ceU, 0x3cc49c40bd5120d4U, 0xbc9043fe3e319df9U, 0xbce60b333dd72b02U,
  0xbd82f0da3daccc4dU, 0x3d8bbd0d3c94d8b7U, 0xbc999561bce49d9fU, 0xbdf7c556bb0f57c8U,
  0x3c67f75a3d6b7321U, 0x3d97f30ebc97be62U, 0xbc2990acbdb0abc8U, 0xbcef5df23d9cabbbU,
  0xbd68415dbcf0b820U, 0xbd6def6bbdf59fbaU, 0xbc6827e2bd80b23dU, 0xbd0cdbbc3bbfbb98U,
  0xbddac812bc45eee8U, 0x3c728028bd5e2f48U, 0x3c979fc03dd61504U, 0xbdef219d3cd75bf5U,
  0xbdb93966bcb06c57U, 0x3ce8bb4a3dcd0bd8U, 0xbd2af36cbd08c4ecU, 0x3d859206be0d0acaU,
  0xbd75adfb3dfb50e8U, 0x3d8d2856be06a69fU, 0xbd8512ad3d457d0aU, 0x3caaeef43d8c4ff4U,
  0x3dac447abe0444d3U, 0xbd01cca73c13dfd4U, 0xbd982cfe3d868070U, 0x3cea53babd293b02U,
  0x3a3b00f03cc5b18cU, 0x3d074c2cbc0fd263U, 0x3d40070abcd583f2U, 0x3d22d6783d012c60U,
  0xbd3f9d023e08b1ffU, 0xbd992024bbf1a7e0U, 0xbc22e22a3d91fa88U, 0xbd271c173d9632f1U,
  0xbbd0bdc83e68c9bdU, 0x3e3480a23aee9113U, 0x3e21f2c93d7f25efU, 0x3dbe23663ca421aeU,
  0x3d39bb76bd482ce0U, 0xbd26eddb3ae8b5f0U, 0xbd07df97bd2a4e66U, 0xbd28cc6f3db82784U,
  0xbe0196b83d5017a0U, 0x3d9478003b4ba81cU, 0x3d9e5264bd00f201U, 0x3da8bc9b3d32fc8aU,
  0x3d27b5e73d2fe3e8U, 0xbd946ecdbd639c60U, 0xbb18ebe8bd8dae76U, 0x3da7a794bd2c7f80U,
  0xbdbfd2fc3cc4dc5aU, 0xbd331b2d3d9fa6c6U, 0x3d1919323dae4382U, 0xbc217c3cbd8a650bU,
  0x3d7c06fcbd7d2cf1U, 0x3dd35ae63b2c0d59U, 0x3c548745bc8ef2b9U, 0x3cf97262bda521a4U,
  0x3cef64533da2fb87U, 0x3daf9f30bdeb3fa0U, 0xbd1e7ba1bc61615fU, 0xbd8934563d0eb1e7U,
  0x3d3550603da31817U, 0xbd271ec0be4b0476U, 0x3de297e23d356118U, 0x3d07d5e63dba3208U,
  0x3d0f61153c836116U, 0xbcf14b0cbde54452U, 0xbd95ecf43d456512U, 0xbda2aa6cbd8fcf88U,
  0x3d17ab583dca8e3cU, 0xbc53080c3d8f6298U, 0xbde4dc573d83b5f2U, 0x3cd9f8783d0ab277U,
  0xbcc973cdbd7584c2U, 0xbe04c4c0bd65a02bU, 0xbc86d3603daf1d60U, 0x3d880d0ebc480c28U,
  0x3b8242cebc8e5c19U, 0x3da751de3db059a1U, 0xbdcae4e6bdf71816U, 0xbd13fe1d3d28e15cU,
  0xbdb860ffbdd8c74eU, 0x3c92849f3dd3f75aU, 0xbd7d13cabce7795eU, 0xbce821bf3d3c0686U,
  0x3e05d0ee3dac75e0U, 0xbd87f08abd8ad8fcU, 0xbd9181963bba436eU, 0x3ba77564bcac5600U,
  0xbd1afdfbbd8ed3e5U, 0xbd8e38743d864f98U, 0x3e0c5852bd9c9d6cU, 0xbd10fb223d2282d9U,
  0xbda4b709bd10657dU, 0x3dacd8ab3d808600U, 0xbd6be3c0bd838010U, 0xbd5c0e49bdae7a0bU,
  0xbdaffe63bdc99e69U, 0xbd0cfb963d563f15U, 0xbd7c4969bd952d02U, 0x3e1667643cd9573cU,
  0xbcb351873cad0ab0U, 0xbdcc1de3b9b9b6d0U, 0xbbf8114dbd03f693U, 0x3c00963a3d025510U,
  0xbdeeca47bd02c36aU, 0x3d7b664d3c12874cU, 0x3d022e363d74d879U, 0xbd11f4623d2652daU,
  0x3d86a423bd95d7dbU, 0x3cccdd0b3c6bb048U, 0xbdd4bcb5bdd27756U, 0x3db39677bda67c12U,
  0x3dfc5400bc5c1f4cU, 0xbe2a78acbc37b45aU, 0x3d9de2933d941eacU, 0xbdb35ff0bd8c536bU,
  0xbd988516bcac0efaU, 0x3d0115e73bbe15b8U, 0xbc9f40b2bd42aeebU, 0xbe17813f3d0cdf32U,
  0xbd61d4673e27051dU, 0x3d50bae2bcded304U, 0x3e2edfabbdde29a3U, 0x3dc961903d5fd444U,
  0x3b4b2f30bd9a2e11U, 0xbd63a6683d0a0a66U, 0xbb00e3183dc3bcd2U, 0x3dfd74a43dc398e6U,
  0x3d04c178bd01311aU, 0x3c366396bdee8e3cU, 0x3da522b4bcf8ea55U, 0xbd4a7e91bccfaae8U,
  0xbd6cfcd43c90c0a3U, 0xbd968cdcbe361d1dU, 0xbd9fe3e3bd249259U, 0xbd7f6eaabcc32552U,
  0xbdbf5f08bdc9ea42U, 0xbc901ba93d37cc73U, 0xbdf1ac4e3cb44640U, 0x3ddaea0cbce973f8U,
  0x3d49ee3a3dc341faU, 0xbd9728053d483ad8U, 0xbcddc432bd3049d8U, 0x3c8a6ef1bddde386U,
  0x3c6dc0eebd0b70faU, 0x3d5c7ccd3dde34c7U, 0x3d4fc1fabd5abb98U, 0x3cf29caf3cdc8f7aU,
  0xbe592520bb8f021fU, 0x3b3ae500bdfb5ab9U, 0x3d8ab9113db8ab76U, 0xbcb202cd3d578b56U,
  0xbdb00abcbd408c89U, 0xbcd40032bc0cf3aaU, 0xbc6f73273d73a5bbU, 0x3d9bcc633c341d2aU,
  0x3d1a33a73d276d08U, 0x3c620cc1be3074a1U, 0x3d33fdcebd7da025U, 0xbd721266be0f77beU,
  0x3dbff330bc9c8f03U, 0xbdc3622a3c1e5874U, 0xbc467708bd37e240U, 0x3d34df60bdc01fd9U,
  0xbd427db93caed8e6U, 0xbe04db6d3ad53450U, 0x3d2281a9bb59a3d8U, 0xbe013cfe3d93085aU,
  0x3d13d77ebc93a190U, 0x3c8d24babc1195faU, 0x3dd2bca43b18f0c0U, 0x3c71a855bd12d98cU,
  0x3d5ea0c53e0c7280U, 0xbcb12631be38a929U, 0xbd88c790bd019c30U, 0xbccd1f26bc87c2ccU,
  0xbd87120f3e1dab44U, 0xbac5dec03ca1b787U, 0x3d20d3413d41e103U, 0x3bceb053be078ee7U,
  0x3c2b409bbdfb9d96U, 0x3de0a366bd3a9121U, 0xbe23ad2bbd0512aeU, 0x3da472a5bc087880U,
  0xbdcbe0c23db32e0eU, 0x3db90bd73c964805U, 0xbc95fe493d31758cU, 0x3daf53d4bd8829ebU,
  0x3dcc8a2e3d42ec0aU, 0x3d3a74a93d168320U, 0xbd0504523baad71eU, 0x3df1ce4c3d82cfb8U,
  0xbd83ee72bc243490U, 0x3d100363bd053c80U, 0x3e0c99513bfa3f4cU, 0x3d7a5abebd4a6627U,
  0x3de818c0bc89552eU, 0x3c93aea0bd8c58ecU, 0xbca476ca3d0612f3U, 0xbd8f61a7bd73e785U,
  0x3ca8e4ae3dc5e248U, 0xbbfdee00bc20d0d6U, 0x3bea75b6bd269f80U, 0xbcf240edbdd66c68U,
  0xbd2d0b11bcc0bd91U, 0xbcbbf220bd57b128U, 0xbcac5513bdaea27fU, 0x3d59a3babd62a73cU,
  0x3c895be4bdbb3a79U, 0xbd4168d7bb6272a0U, 0xbd47f3c2bdfb7150U, 0x3d669a77bd4b92c6U,
  0x3d2c85cabcf6f60aU, 0x3b9eb49cbd2767f5U, 0xbd73eac03d6e8c38U, 0xbc3e717cbbde1915U,
  0x3dce114a3d912984U, 0xbcc11d9dbd4acbe4U, 0xbdff3c113cc0de42U, 0x3cd8113cbc26f01cU,
  0x3d7b39db3dbfe1f8U, 0x3d9f2751bd4d4268U, 0xbde6653f3e3df607U, 0x3ae24ce83de9ba1eU,
  0xbd5e44e6bd8c7db9U, 0x3d5a22ff3d398943U, 0xbd1baeccbe183f19U, 0x3d9c00fc3dffc2faU,
  0x3de84696bd92c7d3U, 0x3d64da26bd783b4eU, 0x3d0e47cabda7d504U, 0xbcbb561fbdc70f29U,
  0xbc881e5a3d0c6d97U, 0xbd8a73c33cdeaf02U, 0x3d533ec43c6c4e98U, 0xbe1ca4dabdd84597U,
  0xbdf799d9bd07b266U, 0x3d3c8c3ebd9dcc31U, 0x3e15a709be30fa83U, 0x3c8694e53d14b9deU,
  0xbcbc99863d941740U, 0xbce100aa3d48c2feU, 0xbd801c65bd5a2cfaU, 0x3cc4ce943db6c222U,
  0x3d780388b9655800U, 0xbd324a213d945587U, 0x3d9ea5bc3c9013beU, 0xbb89f6b0ba0ad140U,
  0xbc1695c1bde2aef6U, 0x3d0a24523d5fb427U, 0x3d53f262bcd52cbcU, 0xbbc88f603da66677U,
  0x3cfd11dcbbfc6682U, 0x3db82bf23cee54f7U, 0xbd2bb3e5bd7a083cU, 0xbc8bde13bd44f29eU,
  0xbd88a138bd7e1b1eU, 0xbd8371a53c0707eeU, 0xbd4b3518bd743e1cU, 0xbd90abc5bd806c35U,
  0xbdb23f7ebda6ca0eU, 0x3e054b013d99bc78U, 0xbd9dc87bbca61d28U, 0xbd7d69aabd60d765U,
  0xbd874420bda5730cU, 0x3d2f7298bcf02931U, 0xbc7e75653dc73108U, 0x3e07614eb9b18be0U,
  0xbd2a36bcbe04897bU, 0x3cd9b4483cf5b3aeU, 0x3d2539143da7ab75U, 0xbca5a9d63ccc8c75U,
  0xbd90966abd93f2f6U, 0x3dc0a8cdbd351efcU, 0x3d1b7cb03e4e324bU, 0x3d9214dd3d3c9a1cU,
  0xbce302de3d39e953U, 0x3cc9f4203d8457daU, 0xbbb0583c3e07ad49U, 0x3ca6ceed3d8c60a2U,
  0xbbf48b2ebcb49d6dU, 0xbd1cc219bd190570U, 0x3dc99eb5bdc5afddU, 0xbbdd8f503c434a5aU,
  0xbd76ad1ebd68a3e0U, 0xbd3542133d399ee1U, 0x3ded5fd03b6db066U, 0x3db2862f3d0b761dU,
  0xbc0af1ac3d9b130cU, 0xbde146783e0c38f8U, 0x3ca1dab03c7471fcU, 0xbcb386ea3c2d19afU,
  0xbb6edcb03cb64c0bU, 0x3e02b48ebe0092bcU, 0x3e01d466bcfd7bfeU, 0x3bf330a03bd3c9ecU,
  0xbd5d3ca03d64bbaaU, 0xbcae855a3dca1137U, 0x3d78948cbd05f20eU, 0xbd8676d83cd9ae59U,
  0xbd956ca93d84df99U, 0xbd39726e3d2f127eU, 0x3c994630bdfc7b6cU, 0xbb843340bd979175U,
  0x3d8b3107bd417688U, 0x3e074839bd63ea33U, 0xbe1a749dbd2705c5U, 0xbe0cbb233d29c8b4U,
  0x3cfdba103ca1e854U, 0xbaf1f754bdcf4329U, 0x3d1d77ce3e1feadcU, 0xbdd2a1eabcbf94a4U,
  0xbc6c36d0bd867824U, 0x3d88e2883b7be1e0U, 0xbc4f228a3dbae536U, 0x3de89345bcb04867U,
  0xbd5d4a9fbc79823cU, 0x3c1393a6bcb8d7b2U, 0xbce68dc43c3efa5aU, 0x3dee6f3c3d26f2a4U,
  0xbe2eff9d3d76141cU, 0x3d04909cbd4716faU, 0x3d0501aebd1c6cedU, 0x3bfbe2b4be2857a3U,
  0x3df991d2bdb92d92U, 0xbe0472a1bb932584U, 0xbd37e4e4be07ae22U, 0xbd6c637ebda28060U,
  0xbde0dffcbcc55fbfU, 0xbb3471b83d9e6d34U, 0x3d894bf03dee7b23U, 0x3d262e48bd814e5aU,
  0xbd4ab742bde9e26cU, 0xbd2c2343bd8ac6e9U, 0x3cc6db023de0d7f8U, 0x3cf41d5fbd042408U,
  0xbcfc2383bd39b022U, 0x3e01bac23d0231b3U, 0xbdaa46e33d2e73d5U, 0xbdf8eae23d04f596U,
  0x3d33308e3d647d66U, 0xbe12d821bdcc51e2U, 0x3d8635a23d78495bU, 0x3b67cc44bcd0d199U,
  0x3d11529239f74800U, 0xbd398b50bd7a805bU, 0xbd8bef6abdfa1514U, 0x3d031bdbbd050dcdU,
  0xbd17384bbd668f7aU, 0x3c89c0883dcf0ebaU, 0xbd82cb5b3bfee1e8U, 0x3e0601b03d3ff5d7U,
  0xbe025a4bbd2a5757U, 0x3d161b923dbcd8a7U, 0x3dce2280bde392ecU, 0xbc415c8f3d3f24d5U,
  0x3cbce3c13d87a148U, 0xbd31e2dc3c0b04c5U, 0xbcc04507bd8b9be6U, 0xbbc4ca6ebd4dfe51U,
  0xbd21c337bc556ebaU, 0x3c520dd2bd9aa3c1U, 0xbdcd2f7c3d22650aU, 0x3d73d6573cefccbcU,
  0xbdeac3593e3d0a4cU, 0xbd289088bcecb8beU, 0x3dbfcceabe20d601U, 0x3c628d94bd137cb5U,
  0x3d0f80be3cf9dd80U, 0xbd6bef40bd4de968U, 0x3c6fea94bd717f00U, 0xbdc0eaefbb7d6160U,
  0xbba2b44c3c182354U, 0x3ca35f82be0894e4U, 0x3e57749fbd42283cU, 0x3bf631c83de0c314U,
  0xbd09bdc63da391eeU, 0x3d213ca2bcc063e1U, 0x3d7781fe3ce85e84U, 0xbce9dfeebd2de519U,
  0xbd9ec1f2bd194446U, 0xbb88b3a2bbbebf72U, 0xbd413056bd49bd53U, 0xbd2c870f3d76e3c6U,
  0x3b66969dbc9ac7faU, 0xbd16624c3b6268feU, 0xbce9edc83d943004U, 0x3d933728bc892b05U,
  0xbbbe21e1bd663374U, 0x3d60076d3cd01c74U, 0x3dd21ab4be43e3a3U, 0x3dbd2e983debe298U,
  0xbd28ecde3d1d8c12U, 0x3d8181973dbf5a5bU, 0xbdd2fb0e3dc59bb2U, 0x3d5f7000bd0ac8d7U,
  0xbd817b59bc078702U, 0x3d47a6c63d9824d6U, 0x3cb427823dbc2047U, 0xbcee79853d760bb3U,
  0xbdf50ed1bcd8a2ccU, 0x3d651801bd5f2358U, 0x3d2d1cbbbd087d72U, 0xbb632dd5bb062673U,
  0xbd5d23babe236028U, 0xbd53c2d43d72e773U, 0x3bf6f1debd9dce7eU, 0x3d0cd6a5bcb07dc4U,
  0x3d8d5d473d86c136U, 0x3d8121dabd93c10dU, 0xbcb69d3239dc1940U, 0x3deafa913c540796U,
  0xbd59570039f6c880U, 0xbe0ab7eb3cd45d2bU, 0xbc1fce373d08399eU, 0xbb90edac3d7d2849U,
  0xbd9701bebe53f570U, 0xbd3c746c3b6a5220U, 0xbb7660c03dab37ddU, 0x3d5636a13cd6e6f6U,
  0x3d1022eabd303a44U, 0xbcb7de0bbdea9ec8U, 0x3d0076d4bd8dccacU, 0x3dedac7fbd60aad7U,
  0xbb8bc152be38d6bcU, 0xbd453c1abe08d1cdU, 0x3cd0315cbd369b07U, 0xbc338221bc0db6acU,
  0xbb132100bdb3368cU, 0x3dab86573c234bd4U, 0x3dfedc013d26b58eU, 0x3ba5c99cbd4fc195U,
  0x3e0bfd4e3c982d68U, 0x3d12145abc75ba87U, 0xbbfcfc4cbda1d06fU, 0xbd29e712bd853968U,
  0x3d3d93073d82dd02U, 0x3c19218fbccee341U, 0x3c07ca343d6c2976U, 0x3dc7fdb53cdcd4b8U,
  0x3cf685a5bdf30cb7U, 0x3d57e8ff39b80070U, 0x3e22f502bb49a604U, 0x3d863288bce8d359U,
  0xbe005fa7bda3446cU, 0x3dea40d03bb8d738U, 0xbd5bdba6bbfe8bb0U, 0xbdbee6b73d5dc6c6U,
  0xbd6f55e6bd9ffb63U, 0xbde462fa3df63e6fU, 0xbc4408acbca21cbeU, 0xbd0f51f43d51b379U,
  0x3dc900e0bdd847daU, 0x3db0ef8c3dc2089aU, 0x3d3da51c3d18722eU, 0x3d95bbfbbdc85c4cU,
  0x3d8006843de7461cU, 0x3d42387cbda2987dU, 0x3d902a2dbce7559eU, 0xbd2571d23bd116e7U,
  0x3db53ece3d6dd6bfU, 0x3daee3983c8f92bcU, 0xbd9f875f3dc48eebU, 0x3d3898033d108928U,
  0xbdf591bfbda97963U, 0xbbd938a03dbcb2bcU, 0x3db872f8bd676a40U, 0x3b6ce310bab966c0U,
  0x3da55aa83db6e110U, 0xbd3251e33cf34090U, 0xbd0aaeba3d92fe17U, 0xbd223d97bd903353U,
  0xbe2f997f3c80c088U, 0x3c4d24203c459e7cU, 0xbd369491bc622c04U, 0x3d8794c7bc978439U,
  0x3d89eb3bbd0e4430U, 0x3de1d816bd8007a2U, 0x3d8a6339bd894763U, 0x3d688b79bb13c8acU,
  0xbd0513763dbdcab8U, 0x3d911782bbb99c56U, 0x3d9dcab83d192b5cU, 0x3d62d200bd7438ecU,
  0xbd64d0fc3da01160U, 0xbcbe48dbbbbcdf56U, 0xbdc13997bd70b278U, 0xbddbfa183df6591fU,
  0xbdc4dad0be059e7fU, 0xbdb5f058bcad6c2aU, 0x3d08a405bd8518d2U, 0x3daacc173c829299U,
  0x3def9cd2bd8ea028U, 0xbd876c7a3d59d4b0U, 0x3d8f626dbbd983d4U, 0xbd4495ec3bec55c8U,
  0xbde871f9bdc7106bU, 0xbd5a84853c902a5cU, 0x3cad1e9f3dc425e9U, 0xbd5dfe20bc2530e0U,
  0x3c8800f8bcbdbe25U, 0x3e2ae0f03d666a61U, 0x3e365cdfbcb81310U, 0xbe089b8f3dcc49b1U,
  0x3d83532b3df2dc3eU, 0xbd4fef64bb4f68ccU, 0x3d1240253d08fb7aU, 0xbd3f80a43987fc80U,
  0xbd84c3ec3d8d4742U, 0x3e017331bd6895d1U, 0xbc92f407bc7ab302U, 0xbd71823cbc08f214U,
  0xbd614f693aa420e0U, 0xbd8ec3e93e1bfe17U, 0xbd42684cbd50eda2U, 0xbc7682563db04ef2U,
  0x3d36b0b6bd922df6U, 0xbb5dd523be18b94eU, 0x3b03d980bdbbc55dU, 0xbd4c9c4a3deccc17U,
  0x3d9e0f3b3d56870cU, 0x3c0e4b74bc9aeb4eU, 0x3d15a0a4bc951e30U, 0x3c8e5ca7bcb8f78cU,
  0x3ca8d6393ce14565U, 0xbd65b56dbd9af187U, 0x3dbec5683cf191daU, 0xbdd7abfc3c3d7d62U,
  0xbc9315dcbd788bc0U, 0xbd9d48553d6f1e64U, 0xbdb4d31c3d3df667U, 0xbde6bfe1bc4c5078U,
  0x3df14d81bdd28fa4U, 0x3cd8f7dc3e0f62c8U, 0xbdf698993e0193b0U, 0xbd0fbc4ebc6196c8U,
  0xbd938170bd918748U, 0xbdb2c2833c847448U, 0xbadf6cd03d807555U, 0x3dfb337339932ed0U,
  0x3cca2cebba99d6a0U, 0x3d23a8523d3c7de4U, 0x3db894bf3e35bf12U, 0x3cf7b2543c0c8654U,
  0x3d80b762bcc57342U, 0xbc960ed63b345a18U, 0x3b926248bcea2351U, 0x3ce9624fbd72c479U,
  0xbda595043d59a0c0U, 0xbcd9a63cbd90a02eU, 0xbd95cad63cc9d8f6U, 0x3c0a0c44bdf0fd61U,
  0xbbb0bbcc3dd3e128U, 0x3d8743843d3b7212U, 0x3dc64fbbbde123e4U, 0x3c500289bc4d231cU,
  0x3d0fa993bd118dc8U, 0x3d5c1c2d3c73d6c4U, 0xbc9f48c73dccdb68U, 0xbc9013983dc7bac6U,
  0xbdcf36b43d9b164cU, 0xbd58df1ebd508f70U, 0x3ceaaaf4be060510U, 0xbc3fe73ebca8fb4fU,
  0x3d32462cbd8f435cU, 0xbdffc8843da33ae0U, 0xbe01b6d4bd36a771U, 0x3cfdeb103d0b0277U,
  0x3d9033d1bd977041U, 0xbd1acf753d4b8bbaU, 0xbdb4008cbd31b390U, 0x3c864d48bd40ecb5U,
  0xbd0aa8503d645792U, 0x3e34a162bc8f854eU, 0x3d8ef2db3cd232e2U, 0x3cf4b80c3c5378aaU,
  0x3db768e43db8456aU, 0x3de742c0bc854b29U, 0x3d64da74bd6b3b25U, 0x3de0b50cbd0f35bcU,
  0xbddb4ad7bd84ad7eU, 0x3d59e3583c75a1e5U, 0xbdc3ca16bc456f6aU, 0x3d2f57823e33f3f2U,
  0x3cc75256bccae6b8U, 0x3dae38543d0a0d60U, 0x3d9c5dc13d3340a2U, 0xbce100e83d1fd3b0U,
  0x3d2477193d4e617fU, 0x3d1fa158bbb35ea0U, 0x3e1262f03dde383bU, 0x3da045383e0ec42aU,
  0xbc7a58b3bd5c0693U, 0xbd332094bd875c78U, 0xbdbd9c8a3e085f98U, 0x3bb03744bd639674U,
  0x3d9abf4f3ca676dbU, 0x3dd6c6d43e079208U, 0x3db64a6fbe244d4bU, 0x3da592cd3ca0e084U,
  0xbcab49c63c266c23U, 0xbc0e1f04bd1309c0U, 0x3ca43dbebdbfa8f7U, 0xbda365a0bd1c0b29U,
  0xbac26f083c00ac52U, 0x3e0a4e7b3c3a12e0U, 0xbdf165ce3d89df28U, 0xbdaab8753d9eea3cU,
  0x3d835cf13e1e78b2U, 0xbdc6be883de02f41U, 0x3bd0f43cbcf6b2fcU, 0xbcf1f326bd8b3c2eU,
  0x3c8f2fc9bdac45a8U, 0x3d7dfbdf3d862473U, 0xbdbeba8fbc25cef2U, 0xbd2517973c9a08dcU,
  0x3de2848cbc5afbf2U, 0xbd4eded43d7052ddU, 0xbd46dc10bd3a749cU, 0xbdd429c2bdfbe22bU,
  0x3e092515bc965df8U, 0xbde2596a3ccd97eeU, 0xbca268b8bda60132U, 0xbdb1a667bb56dd52U,
  0x3b7a8e28bc3d7006U, 0x3df73a8abd9836ceU, 0x3dbbe86cbd0a0dc2U, 0x3d551858bc5ecbe6U,
  0xbd4c09bcbd8ae02cU, 0x3decf99b3cb697b2U, 0x3db17126bdd4b93cU, 0xbd22be88bdc9447dU,
  0xbd4b1964bcec2d60U, 0x3ddda6f03da4e50fU, 0xbb927c6bbdbb4ab8U, 0x3d1cf58abd022208U,
  0x3b5b7a953dd99bd2U, 0xbd6901bbbc9fef8cU, 0x3a870df03c48ce24U, 0x3cdf362ebd9a453bU,
  0xbd0a71eabd0dd48dU, 0xbd02cb583d4a0669U, 0xb9641040bccb8b13U, 0xbd474ab2bbefa38eU,
  0xbbfcf2023c22a140U, 0x3c78690c3d071200U, 0xbc9b09b4bcf667f6U, 0x3ddd3240bdefc46eU,
  0xbe1d3a273d756266U, 0x3d6410b93d95e63bU, 0x3b322fc8bbe6ece4U, 0xbc63843b3cc66ab5U,
  0x3d45b2993e3fadcaU, 0xbd5ffc66bbf1ca2aU, 0xbdc536b13c524259U, 0x3d70fa723d72b7b2U,
  0xbd32edecbd4830beU, 0x3dd9acd9bdb093ceU, 0xbe15810e3dc7b60aU, 0xbbbf8996bcab2132U,
  0x3a8e70203cec8fa2U, 0x3dcaeec8be07dffbU, 0x3ddb55f03dd2c1b0U, 0xbd175ce1bdb58342U,
  0x3d6753863cc212efU, 0x3b12b91f3d32b361U, 0xbc43fd0dbd8bbfbfU, 0x3e0dc60abd345e28U,
  0x3d49d4d4bc7a8004U, 0xbc887d86bd52bd6cU, 0x3d2b11c9bcbb18b7U, 0x3e060f2dbcc46e52U,
  0x3c7711443d951fdeU, 0xbe12aef7bbff5750U, 0x3d88c7f93da419eeU, 0xbc4f7f3c3cc88e66U,
  0xbd960b66bcbce176U, 0x3cd94a1abd7d9f0eU, 0xbd1f63d33cf08b52U, 0xbcc75bd03daac959U,
  0x3d8c027f3c87be3cU, 0x3c94d5e93de37be3U, 0xbdae4cf2bd0c7855U, 0xbcd7625a3de20277U,
  0xbc5e93ec3de46d4fU, 0xbe11153f3d71fe01U, 0xbda2ca38bd4cb2d0U, 0xbc393d75bdaff74cU,
  0xbd2631a8bda70624U, 0x3d05405c3d8aa547U, 0x3d18cee6bdc71c89U, 0x3e465561bd8b7ca2U,
  0x3cd977fa3dc95f6dU, 0x3d8c0efebdc216ebU, 0xbd5fbc31bdd9844eU, 0xbca1cb85bd7a4298U,
  0xbd3a3dce3c84400eU, 0x3c3aff10bcffd4cdU, 0x3cf0d46a3ca51364U, 0x3d3f9efdbdbf3850U,
  0xbd32e3dcbc088c80U, 0xbe0f05533d0e73e0U, 0xbc34dc943cb009ceU, 0xbd05b8d2bc795daeU,
  0x3df9b184bcf7e196U, 0xbc32c521bde1e4f2U, 0xbd3951103d92bc1cU, 0xbd6d567bbd1adb90U,
  0x3d9810043d515411U, 0xbd62750abd23ef82U, 0x3d9f345b3df67046U, 0x3cbb16f4bd87d7f6U,
  0x3d7c4c2c3ab38680U, 0xbd48a9213d8d0f86U, 0xbc8b0abd3c929b16U, 0xbda7a1dabdcbcb9eU,
  0x3dd6fe83bd59bc26U, 0x3da79f313ce755f0U, 0x3d824f54bdf9496bU, 0xbcc408bc3e141951U,
  0x3d2fe85dbdca144aU, 0xbc8866d8bd8bac8bU, 0x3d658d3c3d87c2ccU, 0x3d2b60723da0ffe0U,
  0xbca7a1b9bbddfe80U, 0x3d1ed8cb3da71842U, 0x3da0af633c4d9c0cU, 0xbd9382b2bdadb510U,
  0xbcf6ad663da3bfa7U, 0x3e039e493c946c45U, 0xbbe0d47a3d92cb9bU, 0x3db3c40e3cf6635cU,
  0xbd68a1203c86a134U, 0xba811c90bdfab0afU, 0xbce6cc103c1b3af0U, 0xbdbf818b3d0ce33eU,
  0x3dd22a153d2bd796U, 0x3c33b62c3ce9d90eU, 0xbd7d37313d951eacU, 0x3e0ca7b83dde6fe4U,
  0xbd1a74ffbc4a3ca0U, 0xbc8974ecbdbd1b9eU, 0x3cca0ceebd541246U, 0xbe3226d53d77112dU,
  0xbe06a36d3d55aedfU, 0x3d91cf263d979eb3U, 0xbccba13c3d3e1ad4U, 0xbb363dd0bdbb0814U,
  0xbd7597cbbd51f76cU, 0x3ca00b273b350300U, 0xbd97d5e2bd2357ddU, 0xbdab333f3c3d911dU,
  0x3c028378bd1011fcU, 0x3d4dd5aebd14c594U, 0x3dae5e69bda827b4U, 0x3cb1a7b33d086b2cU,
  0xbbe5e586bdef426bU, 0xbe2e9dcebd3fb90dU, 0x3bcb098b3d240660U, 0xbe0336be3e1a388dU,
  0x3d1b1e643d18b486U, 0x3d632d36bdcc4e3dU, 0xbd480caa3d0578d9U, 0x3e1e4f91bc866ba2U,
  0xbd204ce23c1182a8U, 0x3da538783c659608U, 0xbc57e6043ca5bcbeU, 0x3d2379c8bb633cf0U,
  0xbd2722353c970e4eU, 0x3d110513bdd70fd5U, 0x3dd023e43db69513U, 0x3d684e98bdb61e6bU,
  0x3c2e3038bc8a16e4U, 0x3dc1ed71bd2d96f4U, 0x3d954ab6bd2330ecU, 0x3d184caa3c21ab76U,
  0xbc3c1d84bc1a70c2U, 0x3c36f6003d7e396cU, 0xbd0e6022bd64fb03U, 0xbda77b853d824f32U,
  0xbde3a5133c6502f4U, 0xbca6d9433cfc0efeU, 0x3d941119be019e0fU, 0x3e05f4f3be098ad4U,
  0xbe3a9a243dae280eU, 0xbd2355123d647df8U, 0xbc4ac5523c570a77U, 0xbda13ae9bd09088aU,
  0xbc7c254b3de7147dU, 0xbca110e2bc95387aU, 0xbccf4868bc80f38cU, 0xbc8fe52f3c68168cU,
  0x3db997d83e06a0ccU, 0xbc3f8e9cbb6a1286U, 0xbd6b92ad3df9a96dU, 0xbd5ac3923da1fe6eU,
  0x3ba67decbd9d6e8dU, 0xbd43f0b43e2d85d7U, 0xbd1735923d673d33U, 0xbb1958bbbcdcb55aU,
  0xbd8c9a8ebc697203U, 0xbce149983ceb1063U, 0xbc2c378c3c8c4a70U, 0x3db7d0f83e242cedU,
  0xbc43ce3c3d786874U, 0x3d33c3913d66d54cU, 0x3cbe6332bdaff748U, 0xbc80ffb83c3b5ceaU,
  0xbdac922f3c0ef908U, 0xbc83eaa03d8a4c91U, 0x3ce421b23e3dbae4U, 0xbc4c38453e0ee19dU,
  0x3dce4ec2bc351bbcU, 0x3db144e13c123f64U, 0x3d5a15b63d40bf5aU, 0x3b1938e43b7d4473U,
  0x3d5d13803d5d72d2U, 0x3dc649543c2dba76U, 0xbca1c7e4bdb86b47U, 0x3da5be9c3d53bd99U,
  0x3db8bdeabc3dc148U, 0x3c92f52cbe1eea5cU, 0x3b8381b0bdcc0a94U, 0x3b41f748bd41b17eU,
  0x3d3434393c5d613aU, 0xbc1f6fd6bc84211eU, 0xbc418148bcf3964cU, 0xbd29afcb3de80ba3U,
  0x3de7f411bd30dd07U, 0x3c271423bb295ca5U, 0xbe31199abe0bdaf2U, 0x3c5f0d4ebd090fcbU,
  0x39b32b803bca2320U, 0xbdb39db1be044611U, 0x3db490b03d422996U, 0xbca169f63cf72a07U,
  0x3b83d9063cf333b4U, 0xbd7d8bb73c208356U, 0xbe0800a23d88e720U, 0x3df43d90bb0f0678U,
  0xbb7c5050bd6cab7fU, 0x3dabc6a4be6d0a49U, 0x3d2a2609bcf3a4faU, 0x3cbb3a8e3cfcf9a0U,
  0xbd32f8193c74b7a4U, 0xbe42dffcbdabb283U, 0x3e0f933b3d4b5cddU, 0xbc48ed743d9fee9eU,
  0x3ceed9903cb4be4cU, 0x3cbc93143d27f895U, 0xba8c4480bd3836c7U, 0xbd9bcc7bbdab6b00U,
  0xbd8d72223d0bad9eU, 0xbd92bcc9bd1a075cU, 0xbce8dd9c3c2ee654U, 0xbbded0ccbcdbc148U,
  0xbdfd69d73cd57e89U, 0xbd7e8a49bd4e4529U, 0xbc3278443d743424U, 0xbe1ae6f6bbdfe838U,
  0x3da7cd1ebdc3707dU, 0xbda938a5bc89f5f4U, 0x3d30ff023e282855U, 0xbdc317e03c7afbeeU,
  0xbe4893abbda4497dU, 0xbc75ed2c3d2fe408U, 0x3d359f38bdcd7f0dU, 0x3d8016503d77c5ffU,
  0xbd7b64163d08421cU, 0xbd1130423cc3d55eU, 0xbcb8d406bd400910U, 0xbd8b74a13db01876U,
  0x3d4560a6bc98b774U, 0xbd23843d3d2af286U, 0x3d584dd43d304131U, 0xbc6a1896bd0311e8U,
  0xbd9ebc44bdec3a08U, 0xbdfc06123ced57d0U, 0x3cc112543cbe889dU, 0x3d7fbe6a3c5b6296U,
  0x3dbd5af43d547dabU, 0x3d9191a0bcc4de13U, 0xbda26c933d355957U, 0xbccf14293b0916a0U,
  0x3ceb219d3d8039d0U, 0xbe027b19be2a2930U, 0xbc4157df3c9e5214U, 0x3d2417573d01c760U,
  0x3dc976003ddbcc70U, 0xbd62c7d3bc9afc00U, 0x3ce5cbe13d9bc0daU, 0x3da258a03d1b9065U,
  0x3d42336abd85ef4cU, 0x3d3488b83c3ff6acU, 0x3db790d73c18d0ecU, 0xbde398583e1590a6U,
  0xbd18e5f8bc0375e7U, 0x3cc133103d92d02dU, 0xbd913b933dfa86d6U, 0xbc30ad5abdc0d83dU,
  0x3d898c35bdec253cU, 0xbd806552be332cb3U, 0x3cd63d0bbe105b19U, 0x3d6bb68e3d857d2cU,
  0xbc42e49e3df80c89U, 0x3db945203c678f90U, 0xbc4a1abbbe252b59U, 0xbd764c983d02b921U,
  0x3d052fa9bd0c2be3U, 0x3cd911cebd195dfcU, 0x3dd96ad2bd4fcb5aU, 0x3db32eccbd21755fU,
  0xbdf65046bd9bb2a8U, 0xbc03c47c3baf026eU, 0xbd7f55cebb83dfa8U, 0xbcb1041c3d5aa6ccU,
  0x3cad27b63d067aa3U, 0x3b8f16863c25d734U, 0xbcd2b368bd8fca90U, 0xbdaeedac3d46cd10U,
  0xbd9bad89bc9f5ebdU, 0x3d4dfceabd4b66fcU, 0xbca5e667bd84dbcaU, 0x3dd677e9bd029299U,
  0xbd30e50fbd8ea0d0U, 0x3d3f9b0cbdede4d0U, 0xbb758eefbe0c54f4U, 0xbcad2e82bd5f5968U,
  0xbdeaaf1ab841ac0eU, 0x3d040e8dbd93b307U, 0x3b6f50a8bcd0e3baU, 0x3d276da8bdbfe007U,
  0x3cab605abdb20272U, 0xbc7e761b3e0df3a9U, 0x3cdac4a53d411136U, 0xbdc9274ebde2d81eU,
  0x3df0807bbe792483U, 0xbd4fd543be25af94U, 0xbda3bc783da4a4baU, 0xbe08be97bc9a03baU,
  0xbd746c94bd71ea79U, 0x3d255c953ce71823U, 0x3d2764cebe1fe09fU, 0xbda1d90a3de734e2U,
  0xbd8b4cf9bd889db4U, 0xbd15fa97bdec1a58U, 0xbdb23d8ebc45a4aeU, 0xbda44462bcf51bbdU,
  0xbd87d03a3d451476U, 0x3cfb4542bce0a96eU, 0xbd02710abd344789U, 0xbc1256b03d574d8fU,
  0x3c60f117be0da753U, 0xbd79e507bce2a6f5U, 0xbd79aecebba02930U, 0xbcf751893cb9817aU,
  0xbd8443163e31ce3aU, 0x3d8e8324bc84579eU, 0x3c01348b3b154940U, 0xbd64e213bd2a0dcaU,
  0xbd342690bc95b368U, 0x3d33a1a63da41811U, 0xbc821c02bce61a93U, 0x3d2e3a61be83c3abU,
  0xbbf0208ebc0b737bU, 0xbdb47685bd43fb54U, 0x3be6945d3da40497U, 0xbc0b04e4bd079981U,
  0x3aef5c003db85a83U, 0x3d67082cbdaf414eU, 0xbca21638bd9553e4U, 0xbd4351973dbd4ed8U,
  0x3db77ff9bc05e470U, 0x3d73a6433d2f70abU, 0x3b2ea117bd22bc41U, 0x3e0438243cf18391U,
  0x3baed148bd570974U, 0xbd1e9dd8bca6bcdeU, 0x3e4f552fbde8bf0fU, 0x3c4a9b60bdeccf29U,
  0x3dc2d3e2bd8f9e86U, 0xbd93a3263d83994aU, 0x3d7700e73d7fc3acU, 0x3d8e41323d69d335U,
  0x3e23a8163db5a5eeU, 0x3d9ce166bccd5f60U, 0x3d8e4d76bdbf6944U, 0x3d45858f3d36cd97U,
  0xbdce72d43d9b3b1eU, 0x3dc0da2c3be47f03U, 0x3c6497683c1bbd58U, 0xbbebd0ecbdde5162U,
  0x3db87c1fbd23cadcU, 0xbd23ae723c820340U, 0x3e4831023bdac010U, 0x3cf0b3fbbd0f1927U,
  0xbc6a76d83d87a440U, 0x3d5f48293d67533dU, 0xbcf2a078bd997fadU, 0x3c820f643d9a0861U,
  0x3e055a11bd8568b0U, 0xbcf78dbdbc84803aU, 0xbdcc9e42bdb0eae1U, 0xbdba2c04bc40d906U,
  0xbd118b3abcc18b69U, 0xbd8012c43d0edaccU, 0xbc503454bbdee136U, 0xbcdf27c93da6ef26U,
  0x3dc49bf5bdf99ab0U, 0xbda9d2c2be0d401dU, 0x3de98833b9f31640U, 0xbc81348ebe28cd7aU,
  0x3da2f91fbcdc2b39U, 0x3cd86756bd64a8daU, 0x3caa73a4bd9ff2c2U, 0xbcd28f3cbdb160dfU,
  0xbd165d913c0f9384U, 0x3d4779813cb0298cU, 0x3d3287dcbd76e55eU, 0xbd1d2035bda1bd4cU,
  0xbdbe009c3d31ede0U, 0xbd5a70283bd5b6d8U, 0x3db57a45bc0ad44bU, 0xbbbdcb38bc31dbd0U,
  0x3dc4db99bca51b0cU, 0xbc81e41abd3d2335U, 0xbdd1b8bcbd2e3b3eU, 0xbcc5eec7bc870bb4U,
  0xbe014a43bdf19cb2U, 0x3cdadfb03d0134fdU, 0x3c172befbd73093aU, 0xbd01f7533d2146c2U,
  0x3b13a020bcb3b219U, 0x3dcff4ca3c08be52U, 0xbc74e9cabda1a484U, 0xbdacdb183d10da7bU,
  0x3d2fd55fbd6c362eU, 0x3ae031dc3e4160dbU, 0x3d25e7763d8364b0U, 0x3e04c386bdba58e6U,
  0xbd570c06bd3c3e86U, 0xbde44714bcdf2c44U, 0xbd710f3d3d5e7564U, 0x3dfc38603c81ddc5U,
  0x3db09e033d71fd04U, 0xbda5dcf2bdf3f246U, 0x3e2f92c0bd5c8648U, 0x3c427d27bd820a95U,
  0xbc8cdfb8bcd370c6U, 0xbd734f823de899adU, 0xbcff22b5bcdd9a10U, 0xbd089489bd8439c0U,
  0x3a99a4cabd50ae59U, 0x3d0c90aa3e0162a3U, 0x3ca9a2bb3ce73b0bU, 0x3d16ed423cb5baccU,
  0x3bbe7ea4bd246c98U, 0x3c730038bd7fcb29U, 0xbd4620ed3bb5891eU, 0x3ce4fb573c2ece24U,
  0xbe0dd0ee3d3bcfb6U, 0x3d7fdaf4bd36ee20U, 0xbd203e0abe0294cfU, 0xbbb912153d83b882U,
  0xbd44622c3c0693f0U, 0xbd5895d43d1e6b0dU, 0xbcedcfc43e1eeed1U, 0xbcc4d0ef3d977097U,
  0x3d0f8d513dd50865U, 0xbdb4d5103dec7770U, 0xbb5dc6803d770362U, 0xbd0622253e054972U,
  0xbc1250cabc84318cU, 0xbd189d44be3e5469U, 0x3dbaea3b3cff85a3U, 0x3e2843c5bc0f5928U,
  0xbdc2eccbbe03fd12U, 0xbc5518c43b63f07aU, 0x3ba320bc3d32a842U, 0x3de84e893d9c5bd2U,
  0x3d94daa0bbbab2dcU, 0x3d7e5f233e03cf4fU, 0xbd17f6d0bdd7be5fU, 0xbdef4a303e2c275dU,
  0x3d89a7463ca81c2fU, 0x3c507dacbd4679f6U, 0x3d8d97aebcffb918U, 0xbd2cec80bdf7c95cU,
  0xbe20f2f23dbeb592U, 0xbc98bd2dbdb2b022U, 0x3e0e5385bcef29eaU, 0x3caa99e8bd3bfa78U,
  0xbdebca943e5eb285U, 0xbd56b8fc3c4a36d0U, 0x3d0c2962bdad8cb9U, 0xbd4dad47bc85be12U,
  0x3e0d6386bb8d81c0U, 0x3d81994abad377e6U, 0xbd9dab983d98be10U, 0xbde8029e3b3158e8U,
  0x3d7054dc3d80142dU, 0xbdf1edc8bbf61f00U, 0x3d443102bdbe91d0U, 0x3aadfe88bdada52aU,
  0x3cab4b2fbd51bc83U, 0xbbf89fd1bd08cd00U, 0x3e3e2a9abcdfcc20U, 0x3d2185533def82d5U,
  0xbdd1cd85bcf7eb04U, 0xbd83e644be1ac7deU, 0x3dd36ad2bdaf892dU, 0xbd1f81483d2d7169U,
  0xbc1a589abda9ee60U, 0xbd83a6e33d0f386cU, 0xbd8d8e2abd3d460eU, 0xbd5ae33dbd734fdeU,
  0x3d286b0b3c1438beU, 0x3d5e86dd3bb68c18U, 0xbc84ceb13bdd9540U, 0x3b832f80386bd800U,
  0x3cd8d28e3e379b4dU, 0xbd90ac383de63646U, 0x3d2a043ebc8d52c5U, 0x3d56524dbd385fc8U,
  0xbe306f123d418309U, 0x3d2d4cb5bda9beefU, 0xbb6537e4be28ff32U, 0xbdc22e2a3b869d95U,
  0xbcbf89663cd53457U, 0xbc39f77a3dcf3700U, 0xbdf20853bc0c9395U, 0xb99826a0bcef0afcU,
  0x3c835294bd20c964U, 0xbcbfe7cebdea5d50U, 0xbe18be4eb966fa30U, 0xbbe2dec83d0d2ef2U,
  0xbded47523ce4ccd9U, 0x3d575ee2bd8f1c45U, 0xbda861c63c91fc6cU, 0x3cf08d26bd73c8daU,
  0x3d9ada513d7830b2U, 0xbcc35e373cf28f7aU, 0x3d400b20be45be89U, 0xbd6145233c8a2b8eU,
  0xbd84f496bc33159eU, 0xbd0b133ebd49fa5aU, 0x3d9dc4b0bbd3fadeU, 0xbd41e45e3da54fe8U,
  0xbe0a2f613d1cf642U, 0xbe147f6d3d0dcae4U, 0x3dcd37823d73cf90U, 0x3c85e57b3cbb2934U,
  0x3d844c5cbcaacf72U, 0x3cc0e5873ce21b2cU, 0xbdc21be6bd3cb7afU, 0xbd9a18593d0ba17fU,
  0xbddbcf993d9d8b47U, 0xbdbb3ddabe4568d3U, 0xbd3e9fb0bd2faca2U, 0xbcef4b3a3c6efa9aU,
  0x3cbaa8473b4c75d2U, 0xbdb91e35bbf2a543U, 0xbd7d6172bcc0386aU, 0x3da091733d635b2eU,
  0x3c19e5afbc84b5e9U, 0xbd965def3db145ceU, 0x3d09c436bdbfc332U, 0xbd7000903d874958U,
  0xbc6cb8523dcc6a0dU, 0x3cbb18083be8b07cU, 0x3cd3b6fa3dfb7269U, 0xbc6ad53abd9f983cU,
  0xbc3f44823cfc15b4U, 0xbd844a0cbe031a7aU, 0xbc4565ec3d80ba0dU, 0x3d0c1e743c2328e8U,
  0x3d834f74bb91d834U, 0xbd462496be20e755U, 0x3a5195e83c498ccfU, 0x3c6f23ac3dae5c71U,
  0xbd28a66a3dbbba4fU, 0x3c7a32aabd5b346eU, 0xbc951f03bdbf362cU, 0x3e0d1b5dbbf267a8U,
  0x3ce426103dfcdbd7U, 0x3ce21324bd45c078U, 0xbc707da0bd436626U, 0x3c46c073bd12d9deU,
  0x3dcf17d7bd56383fU, 0xbd72ad5abaeaf480U, 0xbb951eacbdd4f282U, 0xbd71af20bd810877U,
  0xbe319cd3be2e431aU, 0xbddf0ee2bcfc031bU, 0x3c8f28203d2003d0U, 0x3ce66509bddb9998U,
  0xbde421ab3d1c06ecU, 0x3d98c29cbd0d7258U, 0x3cd687fa3c583944U, 0xbd239b083d49d940U,
  0x3d87a494bdafdc55U, 0xbcbb59193c49914cU, 0x3df545a23cb6263cU, 0x3cb8e73fbd0b6f62U,
  0x3de04510bc32792eU, 0x3c8ccede3e0dd6deU, 0x3bb154313d464aaeU, 0x3c21d58fbd832090U,
  0x3d940ad23d03b4aeU, 0xbd0cafeabe506051U, 0xbde35f88bd80f459U, 0x3c0d5580bcb0acf2U,
  0x3d0ef5723d4b050aU, 0x3d7448fe3d8620d7U, 0x3cf7948abdfa776bU, 0x3db218aa3d7911adU,
  0x3d404c61bda03526U, 0x3d782d01bde36198U, 0x3cab69453e0f7b72U, 0xbdad419ebd9b3b71U,
  0xbde2d95b3cade7caU, 0x3bcee7dc3ca565deU, 0x3d42f58abc007ea0U, 0x3c51c9a6bdeb94f6U,
  0xbd0f4150ba752dc0U, 0x372ce800bda92ccaU, 0x3dc124eebd45a2e2U, 0xbc5223f83e082776U,
  0x3d8db5433d6a19baU, 0xbb2a461f3d294afcU, 0x3d962dad3daf441fU, 0xbd205ecb3d257e60U,
  0x3c1261dd3da17418U, 0xbd2a183b3c7a393cU, 0xbc6514a2be1ba9a0U, 0xbde41fd93baaff58U,
  0x3d13d0e1bc83672fU, 0xbe0991e33c801820U, 0xbd591d8abc7605adU, 0x3c3fba4e3db6e6f2U,
  0xbcf6591cbdd3e846U, 0xbbde4dbcbc6fae84U, 0xbdae924c3d9165b4U, 0xbda0543c3cb093c1U,
  0xbcbe743a3d04ebe4U, 0x3c4dea0ebe394e91U, 0x3c7fc98cbd86e910U, 0xbce692593de04dc3U,
  0xbdea50b23bfbdda0U, 0x3bd53f0cbc3fd03eU, 0x3c1536fe3d68ebfcU, 0x3d353ed23c2dc514U,
  0xbe0b641abd51d298U, 0xbdd465183d992929U, 0xbbcb6846bdb43c57U, 0x3ce8e1aabc8953e2U,
  0x3d32fbbc3e2c0b6eU, 0xbacc8eb83d47e820U, 0xbd71fc883b9a4044U, 0x3d5b800a3da717d1U,
  0xbd3b06f6bd9dd72cU, 0xbcf0f41d3dad639eU, 0x3db37a50bd732c32U, 0xbd3aee123db7aba2U,
  0x3cab8f96bddb357aU, 0x3cb3a6f2bdcd4799U, 0xbd4bdd883d111a88U, 0x3dafc11fbc9ddb82U,
  0x3d0e414bbdc5456cU, 0x3e154480bd9f01cfU, 0x3db84ff5bcd393a2U, 0x3d67dfab3d02c3b8U,
  0x3b8f89563dfda6b6U, 0x3d8f71f0bcab7adcU, 0xbdd08ad2bd0eeba0U, 0x3d88201abd8502b1U,
  0x3c0602cd3dbb51d7U, 0x3d854b10bdf32f9aU, 0x3c72410abd52fee7U, 0x3d07bea6bd8e5c21U,
  0xbd0fbcd8bd52a2e9U, 0xbdc0f09c3c07e1faU, 0xbd8127efbc6b29d5U, 0x3dd5bfc2bd19303cU,
  0x3dc10f5e3cdf1d5eU, 0xbc30ef043dfdb8b9U, 0xbcfd86693e077a58U, 0xbd5beccb3d6f4080U,
  0x3c54b295bdf51f65U, 0x3d7794ec3e2f5513U, 0x3d8dc3a93e12a70eU, 0x3cd12c83bc379a5cU,
  0x3dd1355a3cdc0bd8U, 0x3d0ea2b0be072437U, 0x3d8d6c06bdef6696U, 0x3c93e80cbdac7b24U,
  0x3b672f6c3e11c1fbU, 0x3ce267d4bdfcf6beU, 0xbdfccf6c3d914806U, 0x3badc4c8bd319c89U,
  0x3da915833c6cfb8eU, 0x3df87824bca321faU, 0x3cca2c573d86dca7U, 0xbe17d31fbcac93b5U,
  0x3cdaef063df2a6e9U, 0x3e00e85a3da79dfcU, 0xbc0826753d198e77U, 0xbdb790d23d860709U,
  0x3c7e377ebdde8965U, 0x3d81416dbd1da767U, 0x3cd5bfc23e038917U, 0x3cc1f7083d53c68aU,
  0xbca246eebd1daa63U, 0x3c0a3a07bd25f3f3U, 0x3e078da83d717798U, 0x3d35b77dbd421d5dU,
  0xbcb399733e24ce89U, 0xbd59b5e2bd03bc90U, 0xbdd09b143c144ff6U, 0xbda745f6bc70ebcdU,
  0xbcdbdef33cf37bf8U, 0x3d525a883be84d9cU, 0xbe0a76d4bcd84306U, 0x3d1a939fbdca65c6U,
  0xbd9b6848bae83ba0U, 0x3d6bd8063b490bf0U, 0x3d647f8ebd02f0c8U, 0xb8b88e00bded1c6cU,
  0xbb69c9f0bcea45fdU, 0xbd3f4f84bd359a8cU, 0x3d40de6c3bb133a4U, 0xbc942932bdd0b2bdU,
  0x3cd394bcbd36b920U, 0xbe004b2bb9916ca0U, 0x3c55847b3de5bd25U, 0xbca956b43dc80e01U,
  0xbc89d6f43d0b8b69U, 0x3c52e1b8bdfa26f9U, 0x3d743c2e3d6a9c1eU, 0xbdd32426bd978d36U,
  0xbdab4e8ebbc51022U, 0x3d9a37d03dc64e8cU, 0xbd8f3b2abd9b567eU, 0x3d63cdb4bdab6403U,
  0xbd59c1bdbd83ae20U, 0x3cdbae4c3e135e8eU, 0x3be0e8b0bd090b36U, 0x3b3300e23c9ebee6U,
  0xbddd9cb9bcefe838U, 0xb8fe45003de58495U, 0xbe011dffbd074a6cU, 0x3d61e6413d6674d0U,
  0xbdc0fbc43cca0567U, 0x3d9cb1a23d97602aU, 0xbde84521bcac8f9cU, 0xbcc8ce8fbc967c2cU,
  0x3dfb01b53d27a07bU, 0xbc3804eb3dfc1e48U, 0xbd6532d03d994cf7U, 0x3b43789a3d79e3f4U,
  0x3d191bf7bd97f9ecU, 0xbd89b7ee3de06274U, 0x3d943f493dac834fU, 0x3d3cfbc13c9eb38aU,
  0xbd23d5bb3d8a3544U, 0x3d1f35e3bbf79f15U, 0xbd6f8369bd19519fU, 0xbd62b5913dae13b9U,
  0xbe0489903d0a9708U, 0xbda9f6e43d958690U, 0x3d918117bba416e0U, 0x3d3a4458bd90130dU,
  0x3dfaa3203cbef886U, 0x3c17a4ebbd629557U, 0xbc32e0f53d1799e8U, 0x3c9ca7ba3aa33780U,
  0xbc8491123c9b9bd3U, 0x3e062950bd390feeU, 0x3dce08523d0537a6U, 0xbc0a77fa3d35fc4cU,
  0x3d55dd1ebb707b50U, 0x3e0d3f3ebdb481c7U, 0x3caae69ebe11a678U, 0x3e18a1c13d9d1fecU,
  0x3dbc4ee5bdbdd6b8U, 0x3c1d282a3b86ddacU, 0xbddd202abd816c39U, 0x3d45abc43ca04f46U,
  0x3bfebcdebc246220U, 0xbd95e361bde7258fU, 0x3d95f218bcb6d7b8U, 0xbdabff883d060d73U,
  0xbb8c4438bcf242daU, 0xbd4517f6bd6ad36fU, 0x3c28c4c23cff8054U, 0xbe32befbbdc75e87U,
  0x3d7788a0bd661474U, 0xbd82b8893dd9b0ffU, 0xbd3be5dc3cec6b7eU, 0x3d0da6a6bda41ee2U,
  0x3d75c0bb3d4deeeaU, 0xbdcdf8ce3d023fd6U, 0x3cb2adfd3ddddb47U, 0x3daddc25bca4f4ceU,
  0x3da66cbe3d78f4d1U, 0x3e3a92c3bccf9491U, 0xbc6d57f1bcfe81bcU, 0xbde9d0bebcc8920aU,
  0xba24f1e0bdb60cfcU, 0x3d8480cfbccb647dU, 0xbdd11232bceb9b74U, 0xbc438ccc3d13be62U,
  0x3da228e7bd979f52U, 0xbd547551bc023efaU, 0x3c722574bda793d0U, 0xbdf06b113da55698U,
  0x3e18e593bc5371fbU, 0x3d383d28bc948d66U, 0x3ceb75ad3d193b03U, 0xbc419ad7bde3a2ceU,
  0x3b87d9efbdb925adU, 0xbd20fab7bdc41b04U, 0xbde161b63d92d0e5U, 0xbd4b30b2be04c86dU,
  0xbd9954ef3d024a17U, 0x3d8640bf3c64e01aU, 0xbc92a3a03d5da87eU, 0x3d2ace6a3dead67bU,
  0xbc944c2abd93b4f2U, 0xbd9dc4733d0b2426U, 0xbe2247d43de23928U, 0xbd96c5a43dc03924U,
  0x3dc9eab33bdc0188U, 0x3e08de58be23d5efU, 0xbd8008dd3bd8e7e9U, 0xbc80bba33d9e6c39U,
  0xbd15c06ebc92b8daU, 0x3cee5c45bdad8526U, 0x3d33eef93df1efaaU, 0x3dfd180abe0c728dU,
  0x3cec1113bdc09baeU, 0x3dcc35723cc1f970U, 0xbd6be17b3cdc27a3U, 0x3d4fffc8bccea100U,
  0x3d1ac057bd7e1f6aU, 0x3b85c7a83dc5734cU, 0xbdb48adfbd31f1d1U, 0xbded0d41bd9547c4U,
  0x3d45bf44bccac3faU, 0x3d929ab83df6523dU, 0x3c60e84ebc756cd4U, 0xbd3233c2bd9c031bU,
  0xbe0781683c0871a4U, 0x3b86ff04bd6510eeU, 0x3bc4f0deba90155cU, 0xbc2b4dacbd4ee530U,
  0x3db6c482bc83b282U, 0xbd3fcf613e576c78U, 0xbc442f9a3e2b39e0U, 0xbde866f53d3d5e37U,
  0xbd012fb13c53c04aU, 0x3df1a28f3c8790d3U, 0x3c8d7822bd017fa8U, 0x3d7ee9c93d226b0aU,
  0xbb9b2ba4bcf67678U, 0x3d154e5abdf609ecU, 0xbcc6f78cbd7c2207U, 0x3dadafd93d6c6fecU,
  0x3b08a52bbccd14bbU, 0xbdb6b8a43d3e0104U, 0xbd91e8843d649b7bU, 0x3d092928bcf37b5dU,
  0xbce723aabdcfd566U, 0xbd2767a8bdb7760dU, 0xbdceb4203c9f2b8eU, 0xbd85b853bd1de5fbU,
  0x3cc0ab4e3d4eabf5U, 0xbd535bbfbc1bc37bU, 0x3d0fd5283df8dffdU, 0x3b45990f3d1d64f2U,
  0x3c71fc11bd1c3ebfU, 0x3d54a04abda90759U, 0x3cb4fa5c3d330d25U, 0x3db5b13ebcfb5040U,
  0xbd8df9ce3d216170U, 0x3d3c983ebc8a0c82U, 0xbdf35444bd803476U, 0xbe2722dcbc06d1dcU,
  0xbdd089a6bdc8161eU, 0xbccac7e83dabcb89U, 0x3ddd1c8d3be7c64eU, 0xbc619538bd2c3922U,
  0xbd7a91423c1aa3b8U, 0x3d49ccc23e23ac00U, 0x3e02777e3c76d3f8U, 0x3dacbcee3d5b8c52U,
  0x3d873d41b93eda80U, 0x3d18885d3c1c0a0cU, 0xbda875cdbd05dceaU, 0xbdb7bb0d3d3aef84U,
  0xbe6b37763de67a5cU, 0xbe06e248bdfb2806U, 0xb9fbef00bdf97be6U, 0x3d767b913e19da92U,
  0xbe5732773c06a370U, 0xbca964fabe25baebU, 0xbd74e75dbcd57efbU, 0x3d0348de3dc7ee6aU,
  0x3a18b711bce31252U, 0xbe23d14b3d27fc4dU, 0xbc7b11383dc55adbU, 0x3d688686bc5fb9d0U,
  0x3daf346fbd678528U, 0xbdad23cdbde86805U, 0x3d5d3706bae077deU, 0x3d258c433c5d90c8U,
  0xbd8ddec53cac6e48U, 0xbd4a65543a320d80U, 0xbd674aca3a89d140U, 0x3b48de283bca8c1aU,
  0x3d5e68febdb11511U, 0xbd3999d33d2404a7U, 0xbd8319893db792e3U, 0x3c8b03df3cbef43fU,
  0x3c858738bd6aac0dU, 0x3d73b0e3be04168bU, 0xbc8ec936bd6deb19U, 0xbda1c73ebdd1f4d0U,
  0xbd422d39bd939beeU, 0x3e039c11bb6dba3cU, 0x3d5b41a43c17ab5aU, 0xbd84e02c3cfae4ceU,
  0x3d1ecc3abd01eb13U, 0xbe0b36ab3de3eb2eU, 0x3d30c8793d59c3b7U, 0xbd72b12e3ced4fa1U,
  0xbd0b910e3d23f815U, 0xbd3446693ce1778bU, 0x3db3a5963d869b5cU, 0x3db1c71f3d064494U,
  0xbd07c2b53e1423a8U, 0xbe16a6dd3ba9d644U, 0x3d68c0e43c51c74eU, 0xbc655434bc30b026U,
  0xbd5f416c3dd988d8U, 0xbd7fefd03d0b6599U, 0xbd491e273cbb6587U, 0xbdecc33ebe0bbfd0U,
  0x3d75c9303d76205bU, 0x3c2a22d13cc357faU, 0x3df56760bd580c42U, 0x3c9abac6bd165517U,
  0x3e089310be0a62abU, 0xbdb81f143e24b1baU, 0x3defc4aabda6a90cU, 0x3bea651dbc85310dU,
  0x3ca4baa63a8e1280U, 0x3e11fcabbc462e95U, 0xbd9518ff3c8f1100U, 0xbdb10493bd4b6419U,
  0xbd22afa23d8ce676U, 0xbde50212bdc3dea5U, 0xbbdb20443d1c2672U, 0x3d548eb3bc8e23aaU,
  0x3c7c0882bd0a96caU, 0xbd3445f6bda4ab62U, 0x3d781a183cac9bb6U, 0x3d9fe437bd883977U,
  0xbe0d96fbbde1cd1aU, 0xbdb3e258bdf668f2U, 0xbd727bb03b822288U, 0xbceb5cf4bc157d98U,
  0x3c6f26283d2748c6U, 0x3cda2b16bc66de22U, 0x3d559232bd91c61bU, 0x3de9e11abd8203ecU,
  0xbcd67d643d164e51U, 0xbde12559bda95bb8U, 0x3db682373c5bbb9dU, 0x3caa89803d68b96eU,
  0x3c368d02bdd6abaeU, 0xbd9f8d14bcf4bc36U, 0xbdfad858bb3cc3f8U, 0xbd6c7544bc4a161aU,
  0xbe068637bd08fe21U, 0xbd2b2b703dfad668U, 0xbc8575b23c431cacU, 0x3ca92febbc9bfb52U,
  0x3c22c708bda99bc0U, 0xbc65cec2be0617c3U, 0xbd614c38bbd99814U, 0x3d8945a8bdb7f16eU,
  0xbdd6c7e6bd599cf8U, 0xbd59f4bcbbfbddafU, 0xbd78fd0a3d6b6918U, 0xbdd81a47bd487b59U,
  0xb9a8e520bd594e40U, 0x3cd6d8b1bd56ba72U, 0x3d1ffd3c3d9cc705U, 0xbe3a0c873da24630U,
  0xbdb73cd83ddac767U, 0x3bdd8900bca91e28U, 0x3ce540733d4029f0U, 0xbcf04f613cacfc6aU,
  0xbd1c537bbd108026U, 0xbd861fd93ce2a78aU, 0xbcf3397fbdc4e98fU, 0x3da61fbd3e1ca31bU,
  0x3d26ae963df81892U, 0xbd116c5fbc8558bdU, 0xbd5a2308ba9be2d8U, 0x3e34b036bd0fd04bU,
  0x3d99cf603d85bf39U, 0x3b5c2d043d4fc099U, 0x3dfc3058bb96c675U, 0x3cefaa22bd147cfcU,
  0x3d04c81c3da84c6eU, 0xbdd37d02bd0076c7U, 0x3d8d165abd7d8259U, 0x3c3473c2bdac9977U,
  0xbc53e1cabc9ca0a4U, 0xbdd4f675be1f9f3fU, 0xbcba3914bcd8bdbcU, 0x3c42d50c3b070578U,
  0x3df549febd54d9b0U, 0x3dd7be4c3e086c04U, 0xbc1cd448bcae5e76U, 0xbc0407783d888fa0U,
  0x3bef8e6ebdb76f9eU, 0xbdf8a3733ab9af08U, 0xbcd0434b3d96e558U, 0xbe11f1b2bdf97c1bU,
  0xbce5e034bb0a0208U, 0xbc7f6a40bd1d6525U, 0xbd3390f53cd60012U, 0xbd1b6ebd3df0ec7cU,
  0x3c3cb6873d7473d2U, 0x3d3eb0acbd1da9eeU, 0x3c8276bbbd11f714U, 0x3d509db83c4a87bbU,
  0x3e116a853c08b57eU, 0x3cf11931bd8cc571U, 0xbd42b2fa3cedb4e0U, 0x3df9ebdd3d8cd1d6U,
  0xbde425b2bd950342U, 0x3d52947fbd422e35U, 0x3d5883283c5b70f4U, 0xbdc7554abd608bbaU,
  0xbb7dad38bc979becU, 0xbc9ca16f3d393342U, 0x3e0ebec23d66b527U, 0xbd1b2d923c32c5a8U,
  0x3da969d1bcd4f3d0U, 0xbdd123b4bd97ef31U, 0x3dab1c7cbdecc00aU, 0xbd2b834a3c922518U,
  0x3d8d29debde1d04eU, 0x3d2c1c743dc06788U, 0xbcef9dbc3ca6232aU, 0x3d3719dc3daec373U,
  0xbbc75a00bd9e8c61U, 0xbd8ff6f8bd406f58U, 0x3cb4b398be01ca66U, 0xbd355d713cb438bdU,
  0xbd8ce276bdd3d30fU, 0x3c44925c3d5a4d88U, 0x3ca69b42bd19f04eU, 0x3db8f76b3d0b3885U,
  0x3d3e2c463d86ed93U, 0x3d8e910e3d078afdU, 0xbdd3c5d63c317d64U, 0xbdf9a5f23d0b7032U,
  0xbc069df13d927c1bU, 0xbce63b06bdbeabe0U, 0x3b82836cbcddc0e8U, 0xbb1dd12e3e022794U,
  0x3dce75423d80c5ebU, 0xbd5087403cc2024cU, 0x3da5da92bd0555d7U, 0xbddc964abe2755fdU,
  0x3d0b1532bd68c87aU, 0xbcd9c0b83dae93b8U, 0x3d380624bd0b2679U, 0x3ce57621bd8c2edfU,
  0x3d9950c0bd3b485dU, 0xbd5bc150bc474d5fU, 0xba8ab9d03dbbbe8cU, 0xbd968ae6bcf69c86U,
  0x3d5643a03dc7f5e6U, 0xbd28a79b3cb5ce3cU, 0x3c132e593bcdd683U, 0xbd589d3fba164d20U,
  0xbdcf1b7f3ce8eecaU, 0xbd52c2a8bd6592b2U, 0xbd155704be16f8d0U, 0xbd587b38bcfca00cU,
  0xbe00337f3dd0f814U, 0xbe433278bc8f0b8eU, 0xbde4ffbabc2016f6U, 0xbdf299fb3a193794U,
  0xba266ed83d910363U, 0xbd8e8ac2bd33ffc4U, 0x3d6e4505bd23152eU, 0xbe04f29bbcebdc6cU,
  0x3d475452bdc17694U, 0xbcee84b23bd298c8U, 0xbb8b72bd3ac939b0U, 0xbd311bfbbd158e5cU,
  0x3d62d2983ca430d6U, 0xbdd3ac1dbc39430aU, 0xbc095fb83c8bc452U, 0x3d8d880ebcd9e94cU,
  0xbc7bcb713b862d00U, 0x3cea6ae0bd32faa8U, 0xbc8435663ceaade0U, 0x3ceb0628bdbc40bcU,
  0x3e5c74c03d1a2a14U, 0xbd53c66abe038410U, 0xbc85feb43c732ed8U, 0xbd49128cbc87e8d5U,
  0xbcf5806e3d75f2a6U, 0x3d490e1d3cd290b0U, 0x3d9789f4bdb35664U, 0x3de03d2a3cdd87c0U,
  0xbce9afa33d3ca339U, 0xbb777e98bae1f800U, 0xbdd33cda3d851f20U, 0x3d705755be075d7cU,
  0x3d6a38f03d9862ecU, 0x3e0738cf3b865212U, 0x3d8226a0bd242717U, 0x3d9d6e0b3dbb4253U,
  0x3d5d406cbd5ddfa0U, 0xbd8db92f3c3c06e3U, 0xbd0037243d6505a1U, 0xbe075e9abd608640U,
  0xbdb755e83dc02de6U, 0x3c6e1eb83c9a1b96U, 0x3bb6d694bd8da5e0U, 0xbdf5a573bce67082U,
  0x3e07bce8bd940c46U, 0xbe5d3c16bd4a69c1U, 0x3d090e6d3d5f1ae2U, 0x3da44f2e3dcd5a1dU,
  0xbb9eeb10bd2bb2c3U, 0x3db33514bda7c398U, 0xbd03dfc5bdb059f1U, 0xbde8b14abc452312U,
  0x3d5148a93cf3dae0U, 0xbc193df23b78350aU, 0x3cad2ca43deccec7U, 0x3d2c8382bdbefcb6U,
  0xbdaf31e43d777acbU, 0x3dfce49f3c1dea83U, 0xbd664a063de11c06U, 0x3dcdd4cabcb3c6c4U,
  0xbd62f059bd8b0310U, 0xbd04f85f3dac1c48U, 0xbc08426e3c5cac87U, 0x3c4077dcbd4cefa2U,
  0xbd5878f3bdbe5ec9U, 0xbdf03c06be2d1cdaU, 0xbba879c8bbeff270U, 0xbd140b8d3dc8a71fU,
  0x3e223d10bcbcbfe8U, 0xbdf606e1bd2db76aU, 0x3cf6607dbd88d64cU, 0x3d7348853dc083abU,
  0xbc30a9993e14730fU, 0xbca74e4c3d32a1efU, 0x3c560590bd307450U, 0xbc78d2c4bd5bf29cU,
  0xbdca61103d0a1ceaU, 0x3e3cc7143dcdedc4U, 0xbd7dcf413d06fef1U, 0xbd26ace43d3575caU,
  0xbd28b0aa3e38340dU, 0xbc9cc836bd33a4c9U, 0xbd878045bcecaff0U, 0xb98ec7703cc9c5d4U,
  0xbe0e6e583ce9ee2aU, 0x3c8b9577bcbd152eU, 0x3de40af13d49118eU, 0x3e0a915a3cb64b17U,
  0x3d13294ebe1170afU, 0xbd2317ba3e14e270U, 0x3d7d962abd190957U, 0xbd96ba44bdb5f691U,
  0x3e0b345ebd5e6637U, 0x3d4f591e3da1ba91U, 0x3da0b7283d5119e8U, 0xbdbaa772bd3e19f0U,
  0x3e16e0afbbdc89abU, 0x3cd8b6cabdba59f7U, 0x3bf641643abb9440U, 0xbd1c4497bdb5df56U,
  0xbe0660d6bdaf4414U, 0x3da2d10d3dca90baU, 0xbdf0ca7cbd0c92aeU, 0xbd22007f39230a80U,
  0x3dcc09583d1f4bf1U, 0x3c3cac203d8b0f38U, 0x3d491df0bc170d48U, 0x3e073cc63dbbf005U,
  0x3d383308bd9ee019U, 0xbd3864bcbdb6c5c0U, 0xbdcc7d773db784c2U, 0xbd74f18e3daeb2caU,
  0xbd1e3f1cbe020bb6U, 0x3b3079263b2ac5a8U, 0x3cf2b6803b1dfc00U, 0x3d9107b0bca80c80U,
  0x3dad451cbd908f71U, 0x3dda0d81bd5a4b18U, 0xbd9a74283b2f9358U, 0x3ca7dc4cbd7227ddU,
  0xbd787235bd07f66cU, 0xbe17027ebd47dc84U, 0x3d49a7e5bd86e2a7U, 0x3cf25aa5bda06062U,
  0xbc5ebe70bc204ec0U, 0xbc359c14bdca1688U, 0xbd4ee0b9bdb1c1abU, 0xbe0d586dbd185a42U,
  0xbc3b1b5cbd87c4a0U, 0xbdf6870abda43a99U, 0x3da5b220bd8b90d1U, 0x3dfa38cebc14b196U,
  0xbdb362a4bdda8bceU, 0xbcaf66b43d03a35fU, 0xbdb2ceedbe043e86U, 0xbe2c0d673c8d3b7aU,
  0x3c83a63d3d034324U, 0xbbc8e8a33b6dc6d0U, 0x3dae42cb3d64b7ecU, 0xbb937a16bdd0d928U,
  0xbdae72a8bdebe137U, 0x3d1684893c26b478U, 0x3db66f04bd704ec8U, 0xbc963171bdbb6af0U,
  0xbe0722863d45a706U, 0x3b374e6f3dcc1d86U, 0x3c827599bc1dd576U, 0xbd08e2653d7e344eU,
  0xbcb75ee8bd0be588U, 0x3d5ca576bd855deeU, 0xbd71c51bbd158eebU, 0x3d832249bd9e437aU,
  0x3d3a40bf3d9131edU, 0x3d04025cbd54ee51U, 0xbd5e3e853e143b74U, 0x3cfb7b92bd643cd6U,
  0xbc920c9cbd69da70U, 0x3d937ad53ce27c68U, 0xbcc85874bd8123f0U, 0x3dd07881bdbc2bc3U,
  0xbcafa70e3c96c6a2U, 0x3dae1831bd7848ffU, 0xbca6f71fbdae58e6U, 0xbdf09d473b7dc9f1U,
  0x3dab2cd6bd30d34aU, 0x3de9c5bebd377777U, 0x3a135898bbf86218U, 0xbcf530343d524aaaU,
  0x3c71e2f63c03fe1cU, 0x3cfb1bed3cf8c071U, 0xbbe9789cbcc645c8U, 0x3d91389ebd5980b1U,
  0x3d8ec1d13db8cf24U, 0x3d7cde68bccff3f6U, 0x3dcb78b8bc90d148U, 0xbbd36154bda02a54U,
  0x3dcb6443bc70534cU, 0x3c128160bdf5c1ccU, 0x3cae224ebbde4cc2U, 0x3dc214163c96c002U,
  0x3d01689a3c29aa60U, 0x3797a3803cda62caU, 0x3e15de45bd077e4aU, 0xbe0eb02a3d8346edU,
  0x3d0e2f76bdcd4551U, 0xbd9887963c424c44U, 0x3a7c1e203c85b6f7U, 0x3af4e7383da8f6a5U,
  0xbcb8cccf3bab56d8U, 0x3deca320bdd6e6e3U, 0xbe17e329bd10aafdU, 0xbd919bcbbdd252caU,
  0x3d7db2983d07571fU, 0xbc9e92463dd9e89aU, 0x3d12fb563de6f0d0U, 0xbd96db663d77a000U,
  0xbc283443bdab5f4eU, 0x3e131079be2730c3U, 0xbd8ec048bda6c64aU, 0xbd953e4e3cc72310U,
  0xbd21eb7abdbff842U, 0x3ddc9ed5bb89dee6U, 0xbd48e6913d097f25U, 0xbdf8ee593db3a31bU,
  0xbd1f7762bd55bda2U, 0xbd522ec9bdae8568U, 0xbd04c474bd994a90U, 0xbb996cd43d2d94c1U,
  0xbcbb6190bd8d353fU, 0xbc4e4d07bdcbca18U, 0xbdc439c13b67b4ceU, 0xbd4473febe153de4U,
  0x3d7bd49ebd054d06U, 0x3d88f206bdad19b3U, 0x3d3815ff3cc7d3a4U, 0x3c982c563d16952bU,
  0x3d514958bd1f0b93U, 0xbd960a453dbba46cU, 0xbb5dbac83e16d92fU, 0x3de2353a3d111d7fU,
  0xbd786bb83cfe4c1cU, 0x3d31d2a23bf0a350U, 0xbd5a5a063dc5e536U, 0xbd91548a3ddc54fcU,
  0x3d59b550bd87d9fdU, 0xbdd4a6c7bd1c6911U, 0xbd089a4a3d537a53U, 0x3d81c8f73d9ef1e7U,
  0xbc140c5a3dc980b7U, 0x3d33fda93cba4494U, 0xbad6c460bcea3ad1U, 0x3d2382f13dc7b9b8U,
  0xbd9d6fbfbca2e31cU, 0x3d47e1a0bd7f6cc5U, 0x3dc6771e3cacca04U, 0x3e175a96bd01dd8aU,
  0xbbc42cee3d2030f4U, 0x3df742b5bbf2ddc6U, 0xbd26dc103a9f15f0U, 0xbbe4236cbbbdbb3cU,
  0xbdb5010b3c5688bbU, 0xbde05e1c3d3d849eU, 0x3c4e75f03d9eafd0U, 0x3d2e72dfbe190803U,
  0x3d66b10e3dddea52U, 0x3d764e4e3d7ac09cU, 0x3d11d54abbc7c3d4U, 0x3c8ddd5d3b49eb78U,
  0x3d60f9debdca3858U, 0x3d61ae8abde0e18cU, 0x3d7da08abd08cf9bU, 0x3cd3008fbd94e3e4U,
  0x3ba989b03b942908U, 0x3dadfbba3d823da4U, 0xbccf944abd1f330fU, 0xbdb438d63d49f4e0U,
  0x3c27a0c2bc288cbfU, 0xbdd617be3e0fc9ccU, 0xbe3310ebbda6046aU, 0xbd9930fe3d9f1a84U,
  0xbd627e30bdcb25feU, 0xbd36b061bc4a82a5U, 0xbdd5994bbcaadc46U, 0x3d33a7ca3b3e34beU,
  0x3b6f1f26be0d15dcU, 0xbd0e3b30bbcbd418U, 0xbd458355bd4c4e62U, 0x3e0902d83da787caU,
  0xbd086bd53d0e2d1aU, 0xbcdec5b4bd6d0deaU, 0x3dd9e5323de9f604U, 0x3df8be603d62e13aU,
  0xbdc594113d8f3af0U, 0x3d6ca74d3cd52318U, 0x3d44bddabe0bf468U, 0x3ceed250bdbcb6fcU,
  0xbd3d61f9bdacf01cU, 0x3d97ee323cb71300U, 0x3d13613cbd48307dU, 0xb9f44b10bd6ef244U,
  0xbd1c40b4bcf756c8U, 0x3d28b6f0bdd9797eU, 0xbdf4d3a03cb7d8dfU, 0x3c550657bd806d82U,
  0x3d3713f7bdb83b71U, 0x3d1642dbbd6a48c6U, 0x39af34d03e1abadfU, 0xbdb03605bcafaa78U,
  0x3d6d95e4bd93a67bU, 0xbca201e93d9ee549U, 0xbe195df53d460586U, 0x3c320e973d08af4cU,
  0x3d990a5d3d6d4f43U, 0xbdef60e4bd904f84U, 0x3cc7a6bc3d49772eU, 0x3cc7960fbdf3c074U,
  0x3b7d4b303dea9bfcU, 0xbdd23b4a3d119329U, 0x3e0f24ddbd540bb7U, 0xbc0f30e83d527df0U,
  0xbdfd38f4bc47f5beU, 0x3da8c6873d55015eU, 0x3d43cbbb3d065b3cU, 0x3b3a7ed83dba7450U,
  0x3cdc7a4a3cd09a2dU, 0xbded051cbdbdf0e7U, 0x3df585ca3e0d4fa2U, 0x3d0368aa3d359c06U,
  0xbdda77b4bdcf728bU, 0xbd86d6fcbdd86846U, 0x3cff46e6bdd533b9U, 0xbde819a73da28145U,
  0x3dd243c73d8a64a0U, 0xbb7b35603d061aedU, 0xbd1c1654bd6c923eU, 0xbd625ab4bdd9f596U,
  0x3ccc64aabc3be76fU, 0x3c7d8e5e3cf7b5caU, 0x3d7556f23dcdbe7aU, 0xbd7e86a8bdb1b02cU,
  0xbdfecfa8bd667520U, 0xbd82ca9ebadef4e0U, 0x3c15f10cbd1bb98aU, 0xbdedc43abde2966cU,
  0x3df299ffbce8c282U, 0x3dc601a5bd350a8cU, 0x3dae9fc63ceee828U, 0x3b4294b0bdbb0dc0U,
  0xbd449fdb3df3a5d4U, 0x3d78e230bd072824U, 0x3cba04f43d9ed980U, 0x3d1f5cd53dc2eec5U,
  0xbdcb8010bca872b1U, 0xbd896913bcaf1bf3U, 0x3ca74eb6be241c31U, 0xbdba6b063d36ece5U,
  0xbd314ba0bd25e946U, 0xbd961ec13d9b2cfdU, 0xbdf686fdbe20eb91U, 0xbd9023a2bd95adc9U,
  0x3cee1d013cb8338eU, 0x3d318ee7bc209f78U, 0xbdd36a8abd218f16U, 0xbd6bfeb43d145edaU,
  0xbd448e61bd95e259U, 0x3d76b4fcbd6e0bdaU, 0xbcbaab203d39ab9bU, 0x3d6449913dca1a94U,
  0x3de03d573b1e3db4U, 0xbca4ad01bd8f8bd2U, 0x3c5a88d8bca2bae2U, 0xbcc392c63ac7a488U,
  0xbd4ebce53ce50890U, 0xbb9be8163c125c30U, 0x3c4dae56bd92b013U, 0x3df377143d8edcc5U,
  0xbd1c253c3df31a4fU, 0x3d5fb3383de35094U, 0x3c6da56bbdd641d8U, 0x3d800b51ba8c54f0U,
  0x3dc02f3ebd4a5685U, 0x3de4efa33d016ebcU, 0x3caddce43cd988ecU, 0xbe259d55bda9d57fU,
  0xbc4cdbb03c2d3ce1U, 0xbb6688d33d8dc399U, 0x3d3e1d403c7af97cU, 0xbd3671a9bdbaddddU,
  0xbd21fc8cbd69f32fU, 0xbd67dccf3e0951b3U, 0x3c46df993e34ae88U, 0xbce27d893ddce2b5U,
  0x3ca35c913d210eb9U, 0xbcac36e13cf694c3U, 0xbd9b02ffbd07ab28U, 0x3d9faed9bd3906f8U,
  0x3d29a3443d7705c7U, 0xbd893dd03d9e9332U, 0x3d83302f3d4c21c0U, 0xbd30ebe4bdaf373bU,
  0x3d344c453d94ae49U, 0xbdb3daa0be0fffd0U, 0xbcddd9c33beac350U, 0xbdae1c5cbd656cb9U,
  0x3d25fbcbbb5cbc00U, 0xbde31522bdaf8233U, 0x3da7bf013d8cc018U, 0x39b61580bb36bf5cU,
  0x3d3f40623da2af33U, 0x3daf72f03d5b0586U, 0xbd7db491bd9a4246U, 0xbe151ce3bb714020U,
  0xbd63cd32bc9bcf20U, 0xbd9a010fbdb43f9bU, 0x3db48922bd4bc866U, 0xbd6c8ee03df3d114U,
  0x3d2ab9ebbdc52675U, 0xbd4c5769bd70db9bU, 0xbc5028573cebde2eU, 0xbd590d763d9b9cc3U,
  0x3a06b300bcd6f909U, 0xbc76b94c3d11c3d4U, 0x3dfe353dbd2f51c7U, 0xbd51cbaabd48f41bU,
  0x3cf810ee3d936d80U, 0xbde000873d70b96eU, 0xbcbc22fb3cd81992U, 0xbd56778e3d9a0c8aU,
  0x3db772ab3dd0c490U, 0xbc923d683bae262cU, 0xbc508241bdde8f5eU, 0x3d51c43a3d33a714U,
  0xbd7539b4bdd4b6e3U, 0xbc8e207e3afda998U, 0xbbd94e1fbda1e7ebU, 0xbde46c8cbd39a001U,
  0xbd145c543e173aa7U, 0xbdfb1f503d0225b2U, 0x3db1c2a63e0e35a5U, 0xbd9b212e3dc590f8U,
  0x3b0178603ce16a37U, 0xbdbbaefe3cb468c6U, 0x3cdaeb3abd74185eU, 0x3db43b283cf76660U,
  0xbdf532bdbb2fa7c0U, 0xbdafde1cbddd2dfaU, 0xbd992bb3bc7ccb18U, 0x3d8b3206bd8586e5U,
  0x3bc59cd03d6fa6e4U, 0x3da32676bd95ae07U, 0x3db83bf5bca0ae68U, 0xbcdaf4c0bcd88534U,
  0x3d0a46e93dac7a4dU, 0x3d6550c7bd3b25e4U, 0xbda8b0233c2d2e91U, 0xbce8c7ee3d555640U,
  0xbd0a38353cac532eU, 0x3d252b5ebd19a3bcU, 0xbcf257dbbe001a92U, 0xbd44ba6bbd545540U,
  0xbd3045ebbde33b36U, 0x3cb8a26c3d9c0b8eU, 0xbdc522093de637baU, 0x3e0f62553c131d49U,
  0x3cbc1ef1bca14496U, 0x3d8e732fbd28515bU, 0xbcfd02563d9486aaU, 0xbd948eefbdbf0ca4U,
  0xbdc9e5b4b99b24e0U, 0x3de2a7fb3d0d09ceU, 0xbdd1c9d1bde2691fU, 0xbdc88974bd9e14d2U,
  0xbc528500bde5e9ecU, 0xbd07c136bd0e898aU, 0xbd1376f03c8a000bU, 0xbd021797bdbb86d4U,
  0xbc96c8093c33463cU, 0x3c88833bbbcbacd7U, 0xbbc5b5e9bd91d36cU, 0xbdd2e22e3d8d04cdU,
  0xbc424732bd545441U, 0xbe1082913befc280U, 0xbd40497fbdeb3206U, 0xbd8c5fd8be316056U,
  0xb9afbe803ce89e8bU, 0x3d7ff2a7bd1dcdbbU, 0x3e05bdb5bc50690eU, 0x3ba4ed783d2e2208U,
  0xbd80876abd0b1ccdU, 0xbdaa7cd53dbe8cf4U, 0x3cc987443d87f32dU, 0x3d69c462bd02f0adU,
  0x3c9f6d9c3daf9353U, 0x3c9d08d03d173106U, 0xbd8336f6be12b3a0U, 0x3d9be6693d9ab267U,
  0x3d9539ad3beee004U, 0xbd8e74a03dada13eU, 0x3de351cebcfe2bf7U, 0x3cc71c8dbdced800U,
  0xbda29f3c3c890270U, 0xbd932e7f3d846730U, 0x3d7fed90bdad7ee3U, 0xbd73e914be323841U,
  0xbdd622853d8ef469U, 0x3dc0c5ddbc51d102U, 0xbd7458b2bde5d0fbU, 0xbceb911d3d59304dU,
  0x3d043416bceacfd4U, 0xbcf05475bd250a16U, 0xbd96698fbd12df17U, 0x3d7150053c6123a4U,
  0xbbaeda783ce46279U, 0x3d3b3941bc0cdd32U, 0xbd4afa223e1830efU, 0x3bc39af8bcc1aa8eU,
  0xbdd95bdbbc25482eU, 0x3b65bdc8bd816402U, 0xbe2b43613c5c9058U, 0xbdc0f246bd34aab6U,
  0x3be268903b439528U, 0xbc801ddbbe167907U, 0x3d4768c7bc8330b8U, 0xbc826072bd68cd55U,
  0x3d587b5dbc773e46U, 0x3da194503c19e820U, 0xbdd2e328bd4da10bU, 0x3b2a7ff73ca11a22U,
  0xbd1800513a3950ecU, 0xbd134e413e259bb7U, 0x3d8a64c73b17c21aU, 0xbcd3c147bda05ff7U,
  0x3bb9c17abd14f9e7U, 0xbd8794a8bcc1c33bU, 0xbb5568a83dfd6b56U, 0xbd6ef0fc3de60ad5U,
  0x3db3f43cbe0eacecU, 0xbd6fbb6fbd06017cU, 0x3cdac2183bbfffb0U, 0x3cfbc233bdc5f87eU,
  0xbd05cd4c3a45b580U, 0x3cb1ca073c7c4654U, 0xbd17eee83dacb363U, 0xbc8a4c443d4813bdU,
  0xbd9845143dad41a3U, 0x3caa5054bbbc2830U, 0x3cde127d3b285e20U, 0xbb39a510bd0e3c19U,
  0x3dd1b340bc98d971U, 0x3df25c3c3d3fb8edU, 0x3b9f4038bdba2b68U, 0x3e105e3ebdbf8b84U,
  0xbd60b375bbfe157bU, 0xbd8ffcd8bd9c67d6U, 0x3bc590783d392e62U, 0x3d185b353d137356U,
  0x3b3b9f7cbc776066U, 0xbd216b5c3d85b405U, 0x3d7016afbdd8f81bU, 0xbc93d7d4bda74e0bU,
  0xbd673ed6bd0b3376U, 0xbc62a4eebd81a622U, 0xbdb79df63c80a49bU, 0x3d1254bcbc681fd5U,
  0xbdb0f61d3d0fb794U, 0xbd81c8c1bc419d9cU, 0xbb80fc70bdc2e6e3U, 0x3bb61d803cab64dcU,
  0x3bcf32e0bd8e28bcU, 0x3d2336b43c49f0e5U, 0xbc134270bb372f78U, 0xbcce319fbbb39102U,
  0xbe144d6bbd2fe4b2U, 0xbd3a0cdabd8e8ca3U, 0xbda3d0a93df8d678U, 0xbd842685bdbb8393U,
  0x3da348cc3dbb738cU, 0xbda8de4c3cf696dcU, 0x3cf7e127bceccb02U, 0x3d6402d5bdad2ec0U,
  0x3e4154903d13d399U, 0xbde2bf6d3cc2aebeU, 0x3d7e0da63c328de0U, 0xbdd9af533aee07a0U,
  0xbd6b544e3deae570U, 0x3d931410bd83f6feU, 0xbd1679843d4f6411U, 0xbd9c34fcbd0155fdU,
  0x3e31bf683c96a61cU, 0x3c42a4683d8187f6U, 0x3c86afa63dbc4af2U, 0xbb81fc883da0697cU,
  0x3d66c7a63e223933U, 0x3c00e8f1bd47eec9U, 0x3d449f4ebd6ca88dU, 0xbe01756b3db90d20U,
  0xbda7f462bd735673U, 0x3c2fc2443dbace82U, 0xbd90fd69bd32592cU, 0xbc07f964bd91bdabU,
  0x3dc9580ebdee82c7U, 0xbcdb1992bbe4e234U, 0x3d79c61e3d6b4b1bU, 0xbc925b963cb720aeU,
  0xbdd8e58e3d6286e1U, 0xbd51669c3da9e318U, 0x3d032b0d3d05869aU, 0xbd0b187a3da5bbafU,
  0xbdb3cae1bdc651b9U, 0x3db2702439814fe0U, 0x3c9f5fd6bcac385dU, 0x3d507cecbe8d31f5U,
  0xbd9b62263dfc2d72U, 0x3b85a880bc51cc96U, 0x3d4c290d3c980452U, 0xbd85919ebc3df1a7U,
  0xbd99701ebdf778d4U, 0xbd0fbe7d3e088b11U, 0x3e02f4383d0e505bU, 0x3d10e1923d3a82f3U,
  0x3d66ab023c8bda5dU, 0xbcdd5b88be186e76U, 0xbca350333c4779d0U, 0x3e0abb0dbce6050dU,
  0x3d223e663b031caeU, 0x3c149f883d8ffd55U, 0x3ddcfad8bd360f5aU, 0xbcf242013d1f2a63U,
  0xbd7f73d33cdce7e7U, 0xbcce5afb3c3ea028U, 0xbd87cacfbdd0333cU, 0x3b4641fa3d00eccbU,
  0xbe1632263d625e33U, 0xbc8e40f53c9aacb3U, 0xbdf94fc93d30303bU, 0xbaf7b7103deaf811U,
  0xbde5fdeabbe1991cU, 0x3de5870dbb0ce7d2U, 0xbca01b86bc812728U, 0xbda25bf43cc76b9aU,
  0xbd605171bd09b421U, 0x3d05c8e03cba6a48U, 0x3d38ab02bc8e1b13U, 0xbcd4dfa63ca95028U,
  0xbd6dce26bcfbba12U, 0xbd7b2a1e3da8b654U, 0x3d63c2dd3cef0b06U, 0xbde173a73d726dacU,
  0xbd80422bbc9f6e77U, 0x3df04200bcbca686U, 0xbe1123a83e2a9b58U, 0xbd90a0633dd65d9fU,
  0x3d0d093c3d170e6dU, 0x3b87dca6bc4af60aU, 0x3d7df9c33e2bd735U, 0xbd6ecf1b3cb43fa1U,
  0xbdce9b2bbdedf6a1U, 0x3c4aa2b23d08d04fU, 0x3d794d08bd8bee97U, 0xbd5610323dbf74daU,
  0xbca9065a3cbe03e9U, 0x3db4df293cd67566U, 0xbce056463d90e68aU, 0xbdafa5423d622db4U,
  0xbca7a7ebbc9ab6b3U, 0x3be5b2503d95dd79U, 0xbca88a943db5af2aU, 0x3d3bfc813cff0660U,
  0xbc31783fbcc23da6U, 0x3ca24bcc3e0368b3U, 0x3c6f03cc3bedaba8U, 0x3d21d7e23c2930b4U,
  0x3d99b3973e17f89dU, 0x3cc162ee3db05f99U, 0xbe1b70f3bc1ad5b4U, 0xbe041d4b3d8b7b0cU,
  0xbc9551a43d2c369aU, 0x3d3e6d07bdf69f6dU, 0xbd28ea21bdc5a558U, 0x3a9eb3f03de26885U,
  0xbd2953213e1321b8U, 0xbd1083393d42663bU, 0xbd14afea3ac351fcU, 0x3c5d383c3d76fddeU,
  0xbc55ab88bd9ffc9cU, 0x3d6c43543cd4ff17U, 0x3d94048cbe09ec54U, 0xbcfce7ffbd40f7b2U,
  0xbd17ccac3d070827U, 0x3d4c490d3d3fc150U, 0x3d1d61d43b85f498U, 0xbd55dd163c1bc0b6U,
  0x3e00a64e3c484474U, 0x3c4c92823dffae1eU, 0xbd8a2b28bd42bdf2U, 0xbe037bca3c54421aU,
  0xbe09f83b3d3ab2cbU, 0x3d8be6a7bdd9a6b5U, 0xbe25f8763ddb23afU, 0xbdb0f8f3be219f96U,
  0xbdb2126a3d90a69fU, 0xbca7e7983d0d8e2bU, 0x3dbed906bdc32382U, 0xbca71b67bcd02071U,
  0x3c9f3b243d0939c2U, 0x3e201bacbda968e0U, 0xbd13301abd5e15c0U, 0x3c91a098bcdcc977U,
  0x3ccca5debd012f6cU, 0x3d8953e2bd8909dcU, 0xbdb883b4bde94231U, 0x3cc032c8bdb4806aU,
  0xbd09055cbd398fd2U, 0x3df563a1bd67c96dU, 0x3dada8da3a457fe0U, 0x3db8b0af3c850ec1U,
  0x3d7f62e4bcd3b908U, 0x3e008c3abd5fa5cdU, 0x3cbcb4903cc01312U, 0x3dd8a81ebd3e5638U,
  0x3d1062e33cba5c75U, 0xbc1325183b9f4e9eU, 0xbd8af2a93d1ec5e8U, 0x3da4f7d1bcc3064fU,
  0x3c68ccc2ba7c9a08U, 0x3d3635ecbc4fb588U, 0xbc6dd934bdc51ae0U, 0xbd478ca0be1a3c05U,
  0x3e028118bd93da0cU, 0xbd0aed26bcf013f0U, 0xbd9bbc643e006745U, 0xbd94ce1fbcc79c1cU,
  0xbe13a86cbaed07a3U, 0x39980e80bd922fe5U, 0x3dc0a78e3da47bc4U, 0xbd35ffe63cc428b4U,
  0x3ba12af4bdf436f3U, 0x3c5e83a43d61a3b1U, 0xbc91e9a13c926ac2U, 0xbdba94323c218686U,
  0xbd5f78163cc11a5dU, 0xbcd31386bd54fcf0U, 0xbd35a7943d3952d9U, 0x3cf2619f3d10f07eU,
  0x3de53287bd07954bU, 0x3c79e29abd7b9f7fU, 0xbb80b116bd4d8c50U, 0x3d3af5f4bd36aabfU,
  0x3d9c38c03ba16f98U, 0xbcaed3f63dd27baeU, 0x3d84c43c3ab24900U, 0xbdaccce6bb9af14cU,
  0x3c9416adbd517b11U, 0xbd8b6834be1424c5U, 0x3d4ad9ff3d795fd9U, 0xbd1008423cf94f68U,
  0xbbf262883cb57096U, 0x3d81b55cb9bf7b90U, 0x3c822ccbbdd3e895U, 0xbb9601e63d171239U,
  0xbdf5f83e3cbb1986U, 0x3dccce163cb7cba0U, 0xbd4916ae3da4e25aU, 0x3d4c752a3c54f75eU,
  0xbe0204753d996f05U, 0xbd01a34e3e0340a7U, 0xbc915b943d1cc7ddU, 0xbd986158bdb7d52eU,
  0xbd078a113c6b9224U, 0x3cbfd44cbd4bddb8U, 0x3d1d37d63da58206U, 0xbdb6d26d3dc13416U,
  0x3da4f2b2bccec8d5U, 0x3ceb5d5ebdb2c0eeU, 0xbd88f53dbccf4d2eU, 0xbd1d408ebdc161e3U,
  0x3dcfc33a3d8a0cc8U, 0x3b82d7783c5470b0U, 0x3d8750b63bf791f2U, 0x3cc1509abd2f272aU,
  0xbce6a9263d5c6367U, 0xbb348ff0bd98faeaU, 0xbd9aa93f3c259983U, 0xbdc211db3c1fcab0U,
  0x3d7311b63c677868U, 0xbd7a7964baee5198U, 0x3d8f2d713d40ba65U, 0xbd6830863daa9c66U,
  0x3c33e579bceb8276U, 0xbddbaeba3c6f5c4dU, 0x3da23b6bbd213148U, 0xba04f908bd4df938U,
  0x3dad6da9bddf3443U, 0xbda621cfbd87edb8U, 0x3d1d132a3c9579ccU, 0x3c117020bd94409aU,
  0xbbb4d8f4bde469c6U, 0x3de053b43d82e74dU, 0xbd066968bd88df72U, 0x3cafbd533e158916U,
  0x3daec32bbdb3e44dU, 0x3dce915f3cb46960U, 0x3ddc8b3a3e451688U, 0x3dbffc0bbdfe3c00U,
  0xbd80200b3c1ef519U, 0xbd298303bd91ee79U, 0x3d09f68ebce8fd70U, 0x3c6c618d3dbabd5dU,
  0xbd20876538eadc30U, 0x3b233fee3dc060ccU, 0xbd4cc0e4bd1deedaU, 0xbe158348bc535664U,
  0x3d07ac41bc80e146U, 0x3c8e73ae3d0b4a8eU, 0xbe160c04bd572107U, 0x3ce9bf483d5af525U,
  0xbb5f8ae03d88cdb3U, 0x3d204dba3d8c44c9U, 0x3b8ac2303b387bf0U, 0xbcc5b0d7bd807364U,
  0x3d4229ffbdbcc88aU, 0x3c909f06bd823dd4U, 0x3d9b8f2e3cbd46e6U, 0xbde048b13c21baf6U,
  0xbdcb069cbb2e97afU, 0xbdc46ec3bd562ef2U, 0x3d9cc4dcbde2666fU, 0xbdd90906bc78a6c0U,
  0x3d54b3d2bdccc0a9U, 0x3d28882c3da70d74U, 0x3d8669b4bd160199U, 0xbcd85cfc3c796dd2U,
  0x3d71fd6abd5afcb2U, 0x3e04387b3d764d14U, 0xbe00d88f3dd1e13dU, 0xbae504f83cd56108U,
  0x3e036aa2bd10a2aaU, 0x3c3ef5d0bcdf648fU, 0xbdf93c5a3d37d200U, 0x3c972ff2be4e57b5U,
  0x3c02a8c5bc9b11e9U, 0x3d87c9d43c7049d0U, 0x3d718c42bd54b2d7U, 0xbd43654c3c190433U,
  0xbd32c57a3d72d37bU, 0xbd3da314bda60d35U, 0x3c83cf2c3d339f2bU, 0x3dafc3bb3d3faed2U,
  0x3d682a1e3d033f9cU, 0xbd2cb69cbcea7a44U, 0x3dae481ebdcc81b5U, 0xbd99e906bd960c06U,
  0x3dd2e28ebdaa82a7U, 0xbd947cc03b205100U, 0x3da23689bd07aca8U, 0x3d3f1ccabd9fb3e5U,
  0x3d9edb8d3c8815b3U, 0x3d2657d9bca2fd6aU, 0xbdcf4477bc5eb109U, 0x3b87c843bd06b7a7U,
  0x3e072bad3d68ff6aU, 0xbd056384bcf30212U, 0xbc1a928e3d2decf2U, 0x3c5238703cb84c7aU,
  0x3e29de3cbcae585aU, 0x3d82dec2bd9c70b2U, 0xbe2beff9bd1591e2U, 0xbd925445bd0d0964U,
  0xbcfd7f6cbdda6723U, 0xbd8136593c9cd35cU, 0xbc74c8b8be24c524U, 0xbb207920bd348cbcU,
  0x3d41a8653d339fc8U, 0x3d9437c23d9017c9U, 0x3c5e24a43d044248U, 0xbd9df59b3e1f00aaU,
  0x3cc7852bbd1b8d21U, 0x3bfab2583e1f804aU, 0xbb0a467abd9809c6U, 0x3d77a0ff3d63ef05U,
  0xbe30a61d3cd1a9deU, 0xbd0a35c6bde07d99U, 0x3ca71c863e0275c4U, 0x3b81e8bc3c754aeaU,
  0x3d25356bbe0113f1U, 0x3cbb99d23d350990U, 0x3dd0c8aebda46a9dU, 0x3d08afaa3cca34beU,
  0x3db5d4593d647536U, 0x3e24ec6dbca033f8U, 0xba42b140bdcde5b6U, 0x3e1b02c73c942cdbU,
  0x3ceb2b46bc9ab6c9U, 0x3d23e0f63daae4b9U, 0x3dcdf7ab3bc34388U, 0xbde161f3bc27ec2bU,
  0x3d12a9073c9b0208U, 0xbba045363ce8672aU, 0xbd1152eebdda087bU, 0xbda7f957be14f0c4U,
  0x3c6ed8943d080b89U, 0x3d9ec4533da04e2aU, 0x3d916f68be0e5017U, 0x3dac78bdbd8f4b26U,
  0x3d4569823d86877fU, 0xbd85cef2bd5ca74dU, 0xbc7761de3c8e6ea2U, 0x3cba7580bdbc89d0U,
  0xbde74206bc32a8a7U, 0xbda1d444bda631aaU, 0x3de8b4b83d41d13aU, 0xbdddd1b0bd90bf19U,
  0xbe04d9b63d0aff76U, 0xbd7f58b43bb725d8U, 0xbd8c7e663d8a4d38U, 0xbdaceb2a3cecf071U,
  0xbc9a984a3da3ed3bU, 0x3d2ee6babd92f044U, 0x3dd591a43d4e7493U, 0x3d0bd23e3b3a8950U,
  0xbcd346e2bdd3e29bU, 0xbbed3eb43c4fecd8U, 0xbd6f4bf23c4575aeU, 0x3d90830e3c297b03U,
  0x3d56ed33bcc8f5a6U, 0xbe2451bcbdf03cfdU, 0x3daadb3ebd34275aU, 0x3d58d56bbd9013eaU,
  0x3df80be5bd93e0ccU, 0x3d0d8a1bbc85d70dU, 0xbde6d823bdd1e7dfU, 0x3c9c41c63b9e3458U,
  0x3da907273da81177U, 0xbc18b5e33daba9e6U, 0x3d99acd63d8a51a0U, 0xbc67de1abd2aecccU,
  0xbe0328253d1ff46eU, 0xbdcfe9933d0ed861U, 0xbc6b48003ceebe90U, 0xbdeeb144bd7abf7eU,
  0xbda613773dcd9604U, 0xbcd995d6bd2aebb4U, 0x3d5c179c3d983486U, 0xbcdb5af6bdd4feaaU,
  0x3e6e3a483bda8f98U, 0xbd16add53e131742U, 0x3c1ce3473d2441f0U, 0x3d683f73bcf031d7U,
  0xbdae2d33bdce55ecU, 0x3bd7d608be8e710cU, 0x3c645bb6bc9d5588U, 0xbda8802ebb620618U,
  0xbcc05923bb8aae61U, 0x3d2e6b303d7ddb49U, 0x3d2a710dbce47561U, 0xbcf145983d6782a7U,
  0xbdffd2c23d607835U, 0xbd3be40bbe388a68U, 0xbd04ceaf3d7aec26U, 0xbce87ffcbde95857U,
  0xbc9176cf3d328e60U, 0xbcb531243c41dd58U, 0x3cd8af2cbd479102U, 0x3dc2ac32bcf00544U,
  0xbbbe26dc3e0a4888U, 0x3df880ae3d9bbda9U, 0x3d49887e3d306a66U, 0x3c206bf739daaca0U,
  0x3dd17fa5bd63d5d2U, 0x3d69de863d9aabadU, 0x3ccc3f4a3d4593c8U, 0x3d2cc44b3d5cd53fU,
  0x3cf6f3bb3cc1101cU, 0x3e2909003c87414aU, 0xbe0f940fbe1dc851U, 0xbd4237063da456bcU,
  0x3df10e493d0ce94eU, 0x3c9f90c23dd1df0bU, 0x3d3a492abe0e5dc2U, 0xbcee07923df5f6d1U,
  0xbe4c1994bc7ffa60U, 0x3d8455113dc23396U, 0x3cc9e1b9bd5a8c16U, 0xbd568b94bce5578dU,
  0xbcc86a863d8526d7U, 0xbd97a48f3d27b556U, 0x3d15794e3c6156f4U, 0xbdeb7ab1bb4bb1e8U,
  0xbde7270abce2aa7aU, 0x3dea75063d56f236U, 0x3da2e04fbd6046ccU, 0xbd232661bd634b61U,
  0xbe396e18bdaa254aU, 0x3da9b12a3c86e13cU, 0xbd530c8fbcf6e71aU, 0x3dc63fe43dc367e4U,
  0x3d462cbc3cca6c79U, 0x3dde15fa3d386d28U, 0xbdec25303d4465b0U, 0x3cc5cee93a8653a7U,
  0x3d865b4e3a2653a0U, 0xbd677b503db95d8cU, 0x3da32e01bdd25890U, 0xbdc3a92bbe15492cU,
  0x3d8f5705bd9ea07eU, 0xbc2ae6423b9f61f0U, 0xbcb98504bdfaff1dU, 0x3a7d57e03dd815deU,
  0x3c1bbd7abc83371cU, 0x3dba35343d7a26b8U, 0x3e3d8f623db28530U, 0xbdb824db3da55eebU,
  0x3d368c32bdf73c2eU, 0xbd936eab3cd2dcf2U, 0xbd3a6e513c1f01fbU, 0xba29de80bb4ec984U,
  0x3df537cdbdd15f80U, 0xbd8415ae3da4079cU, 0xbda476963d366bcaU, 0xbd6067ed3d4300b9U,
  0xbd949190bde2e1b2U, 0xbe17ff683d8f62a6U, 0x3d29df69bcc263edU, 0x3c0d9384bcd21ccfU,
  0xbe14937a3d21fac0U, 0xbd82cdf2bc718f7cU, 0xbe3353d7bcef05e9U, 0xbcd7655e3cc7eea8U,
  0xbd23ce783cf8b62cU, 0xbe0cfa13bd27e812U, 0x3c911306bc643aefU, 0xbe22b41ebcdba360U,
  0x3aacbb00bb2ebaf8U, 0xbcdce5643d790cd4U, 0xbc91923bbe11d963U, 0xbc73ab56bc9cfe54U,
  0xbdb353e23de71c6eU, 0xbdc0796cbd10a57eU, 0xbdb8e6d93d557b1eU, 0xbe1e44b3bd3a02beU,
  0xbd2558ebbaba7280U, 0xbdb339b23ca01c3bU, 0x3dacb659bdbe7a75U, 0x3d2530163d96ca2cU,
  0xbd68ad223cea59d0U, 0xbdf90460bd824bfaU, 0xbd0f91a43bf5bcdaU, 0x3c0ec0683cf66316U,
  0xbcebac963c826825U, 0x3e1262d5bc202288U, 0x3d214f183b970a78U, 0x3d967bba3a290600U,
  0x3e2e01a0bd643f5bU, 0x3d3b62ba3e01241cU, 0xbd6c1dedbce93eceU, 0xbd590ccfbb3fddb0U,
  0x3d68d6a83cdb3dfaU, 0x3e26f8d23db9b7aeU, 0xbd0e06fbbd6e21faU, 0xbe3f24d53c32d8a4U,
  0xbb6af5903d2a6278U, 0xbc9bd7a73d535346U, 0x3d8db08fbd0c532aU, 0x3d6f6e87bcd78087U,
  0xbd88b6d73b11b7b0U, 0x3e0927d4bba79418U, 0xbdafbfeebd7263ceU, 0xbdc4d6273d26274cU,
  0x3dae9ec63ce1425cU, 0x3cfe38023da76664U, 0xbc90d23e3ddd0a2eU, 0x3d3c0aab3cd19f64U,
  0x3d8a73f23b82f990U, 0x3d223968bc157cecU, 0xbc4dd6243bc6ed95U, 0x3db5efa03c8aec64U,
  0x3de34675bd521b47U, 0xbd0a8bc63c972a99U, 0x3d14b0753d9ca911U, 0xbd92a51c3cc8ed4cU,
  0x3e0ff536bd9060eaU, 0x3d9639193d79f2a0U, 0xbc99c2babb790c21U, 0x3cc01ccd3cb79a97U,
  0x3d88c36c3d4a169cU, 0x3d92240dbc7b7243U, 0x3dab78c4bd61bf9bU, 0x3bc4d811be0a4d3aU,
  0x3d80be7abd36eb4aU, 0xbd149a16bc825a41U, 0x3d4e8cd8be0d4bdaU, 0x3a5a7130bd3712ddU,
  0x3dbf4bda3ce744e4U, 0x3a6ac320bd00db9aU, 0x3e0855b43c385003U, 0xbd6cb13a3df16d40U,
  0xbd806cf43dcb0a35U, 0xbcacdab0bca36f3aU, 0x3d6241bdba9f6b8cU, 0x3cc272c5bccc3daaU,
  0xbb8873dcbceaa2b9U, 0xbe0699433d8d49b9U, 0x3c32fd1abd21ab37U, 0xbbac23e63e3f3d3cU,
  0x3de87e97b9b4d2f0U, 0x3d8bd7843c34a9deU, 0x3e268e923bbebda0U, 0xbca82bbd3c2f8eb4U,
  0x3c928165bd9c4a6cU, 0x3ced00e4bb80d160U, 0x3ad9b7a0bdaa1fc6U, 0x3b67c478bd8fe863U,
  0x3deda9213db5b864U, 0x3d91e7cf3dc25aa3U, 0xbbc659103cce49c6U, 0xbd9e30993b1d8c3aU,
  0xbda1bee13cea8f83U, 0xbdbc27a7be13bfa6U, 0x3b9448183d077cadU, 0x3d22a50fbd6cb067U,
  0xbd1ef6543d993222U, 0x3cfb0a8cbd9af587U, 0xbda274a73d54a1a8U, 0x3dd72ef23c12a989U,
  0xbdbffa87bde2864cU, 0x3d18398ebdf9836aU, 0xbc6102533c6591d4U, 0x3bb6a14a3d43000dU,
  0xbdde1f8bbd00ca78U, 0x3de35a483c48495cU, 0xbd47c9f1bc8f1ee6U, 0xbc97ef0ebd6d0bd6U,
  0x3e0f683fbd3c3fddU, 0x3df6d440bd0b5792U, 0xbd6a1984bd3c94f3U, 0x3baf5d083c8a0d5bU,
  0xbd1ed3b63d20d2c8U, 0x3ce06da53c99da7aU, 0x3c969f06bd968744U, 0x3da8a381bd82dd09U,
  0xbcda4139bcb97003U, 0xbd1e681a3de5688cU, 0x3ba60fecbde3b193U, 0x3d7288f43db0113dU,
  0x3b7dc064bd8a97c1U, 0x3d07f4a13d294824U, 0xbdd73fd2bcf5931bU, 0x3cc337f93d9ad431U,
  0x3e0ce7ad3de59d0cU, 0x3db453043d5639a8U, 0x3d3c3ce8bc854082U, 0xbd59f42bbc98c9d2U,
  0xbd09a004bc9265b5U, 0xbc9fd73e3d9c7453U, 0xbbec934abda52100U, 0xbd3ce941bc16ea78U,
  0x3dfad8b1bdf52498U, 0x3dfa39de3d29ef3bU, 0x3b20a760bd661508U, 0xbd38f5303b944d9dU,
  0xbc8cd9c8bc4e961cU, 0x3d24ae6fbd645352U, 0xbdd41adcbd739ea8U, 0xbcbc0b473d971fcfU,
  0xbc9721d23d0dd1c4U, 0x3dc795a53c0265baU, 0xbd1775fbbd7b4e4eU, 0x3d1e7790bc61b97cU,
  0x3df8b4363df2b302U, 0x3d5b276c3d0e81cbU, 0xbda8f523bd6ec784U, 0xbc0c48eabdca68dcU,
  0x3bbbcc78bdcbd26cU, 0x3dfa0be6bbe03cd0U, 0x3c834b943d528583U, 0x3d0b44c4bd8099abU,
  0x3d65cf2fbc271f80U, 0xbdd2fa60bb0671bcU, 0xbce69e4e3cb6c2a2U, 0x3d37dddd3af07ed0U,
  0xbd03ab313ce3f828U, 0x3cea834ebd6d1f5eU, 0xbd804c9a3d34157eU, 0xbe207c0c3df13afeU,
  0x3d566fadbd8e2e62U, 0xbcfa9c3a3d4a2f35U, 0xbd0fe29e3c322c64U, 0x3cb0bc783d29b998U,
  0x3d58bcf73de6a399U, 0xbce07adabdfbac7bU, 0x3d21f04f3d090fe3U, 0xbc9db21abe1fd3fcU,
  0x3be5cc6bbe26dcb0U, 0xbd072b6d3df0fc87U, 0xbe012b65baca8010U, 0x3d56c99b3e147085U,
  0xbd932ef53d54d46aU, 0xbd6b398bbd8b13aaU, 0x3e005ad5bcea5a9cU, 0xbdc72c403db0af33U,
  0xbd8fdfc6bdc48d98U, 0xbbf2e65c3d6a29daU, 0xbd01935ebdd3672aU, 0x3d7625f83df626f6U,
  0x3ce623bebbc0ca43U, 0xbd7c8dd5bc4845c1U, 0x3d5a39bfbc32899eU, 0x3d8d3fa8bd161d8fU,
  0xbd85ebff3d4c92c2U, 0x3d8268bbba3da5e0U, 0x3d0b322fbc8557e6U, 0x3e25620dbe34662aU,
  0xbcfea7c93d99d412U, 0xbe17ea783db99007U, 0x3d4fa0af3d3d8435U, 0xbd0f58e83b3123a8U,
  0x3caa9bae3dafeba9U, 0x3da86f20bd795f2dU, 0xbd810f05bd81f0f9U, 0xbb851c3ebca01752U,
  0x3dd101b23d598efcU, 0xbc4de158bd2f2e76U, 0x3bad23583dfe2a46U, 0xbd9c171cbe49dde4U,
  0x3c098d05bdb538a9U, 0xbce18bde3ddfadb8U, 0x3cf36b16bd918615U, 0xbca3442f3b0128c2U,
  0x3dcc45d23d1b8f12U, 0x3dddd962bc0e99efU, 0xbdff5b883d3a2a99U, 0x3e27ec303e0e7337U,
  0x3d692ebcbd1e1016U, 0xbd1ec26e3d19f1f4U, 0xbd7135efbcda0b58U, 0xbdbb5ffcbd1295dfU,
  0xbc47c7c83d4cedc3U, 0x3d6e834e3dd31053U, 0xbb79df203d84e700U, 0x3dc182c3bdbf922eU,
  0xbcc676953d26a9c7U, 0x3d68bed6bd86a7fbU, 0xbcf62d2b3d9eda53U, 0xbcd4a9d83cad77fdU,
  0x3c3f8fe2be0b05b9U, 0x3e061162bdc61cbbU, 0x3d0e1446bcdbf779U, 0x3cd28cecbdb9b8a0U,
  0xbb9d77803dba0231U, 0xbc95c80d3d5b623cU, 0x3aa5fb203e0a3243U, 0xbca774e4bd1d84bdU,
  0x3cccb32c3d20732bU, 0xbce0f5813d7d7547U, 0xbcea3ea53d296f72U, 0x3d5830c33c31658eU,
  0xbd86b9bc3d6e4b5aU, 0x3ca878803d886108U, 0x3badd640bdb52399U, 0x3df27aaebd09652eU,
  0xbd144bc7bc9b61deU, 0x3bb69a343c27f15dU, 0x3b5c6300bcca6bfcU, 0x3d52884ebd4072c8U,
  0xbd81e4563d30f136U, 0xbcc873c53d8edcf1U, 0xbbb271253dcd40e4U, 0x3be493983db167abU,
  0x3c201ac1bddcb858U, 0xbd26a2c2bca34490U, 0x3cecef41bc5ffb70U, 0x3d2b3c693ce3e4cfU,
  0x3d4768e0bd324618U, 0xbdbb47ba3d93ed98U, 0x3c4c0068bd744eb9U, 0x3d1544313d0e39e7U,
  0xbc72a502bc7f1550U, 0x3ca9942ebd72dfadU, 0xbd4f0c77bb828811U, 0x3df8d91b3ca6482dU,
  0xbb22f25cbce43265U, 0xbde53a413cf729d6U, 0xbda2010fbdd75f71U, 0xbc22e297bda3114dU,
  0x3d7ddb923df7d63aU, 0xbd8b5a2abde177e2U, 0x3c9e20f2bd24dca1U, 0x3dcff2f33d8bb8fbU,
  0xbd86695bbd38626aU, 0x3db653d63df57ea0U, 0xbd24b92abdec0a66U, 0x3da804c4bd71aad8U,
  0xbc7f5a48bd0ede99U, 0x3d7770e1bd86d83eU, 0x3d547e7f3c856b08U, 0xbe28990b3d4a5049U,
  0x3bace5a439f4ec80U, 0x3dae557a3c3da11dU, 0xbc24e18cbd0a2a1dU, 0xbce65a7c3d94bcecU,
  0xbd4d4b703b433b90U, 0x3dcba5dcbda142b4U, 0x3db72363be0d28ddU, 0x3dc7e9f63c3cd94cU,
  0xbe08c67b3d042ecbU, 0x3dda94c0bd43aee7U, 0x3e0f60363d3c5f11U, 0xbd0bc80e3bd5845eU,
  0xbd0a575cbcb492d2U, 0x3d52d3a8bd1e482bU, 0x3d48e8c63cd133aeU, 0x3c4c16b83d5744baU,
  0x3d367178bd753503U, 0xbd3bfe4e3dda5c7cU, 0x3ccb86353ced76beU, 0x3d34a0debc7dc010U,
  0xbd660ac13d27fc0eU, 0xbd879012bd030b08U, 0xbb73f494bdbc5338U, 0x3d585deb3dc5acf9U,
  0x3d566298be0a5208U, 0xbd922f02bd8a05e7U, 0x3d0df0673cd7afadU, 0x3d722f4bbad38e00U,
  0x3d0cda0fbd12eee4U, 0xbe01655abc125ebdU, 0xbdb2ffb7bdb11e58U, 0x3da22cbb3ca9a543U,
  0xbd25ad893e012f2cU, 0x3d3484c93da1f646U, 0xbd1ca40b3db4c1bcU, 0xbc6810603ce65e2cU,
  0xbcef82653ce0d4c4U, 0xbdb9e925bcd7ec0dU, 0xbc333d66bd12aa8dU, 0xb9895da03cbbb592U,
  0x3df53c47bd28d2c0U, 0xbd858f13bd598560U, 0xbcad3cdf3db107ebU, 0x3ca684a83e22631eU,
  0x3db798373db8972cU, 0x3e36b3fabe36821cU, 0xbd94010c3e023a05U, 0xbc03f0383beadd81U,
  0x3c5e0a78bdcfa22cU, 0x3dc87176bdc9c317U, 0x3d0447ca3bf9f080U, 0x3d38ad7a3b99f54cU,
  0xbd4d3ac8be0e4e4aU, 0x3d8db1983d6a634aU, 0x3db2c9d9bca04533U, 0xbc743104bd5a3f36U,
  0x3d90dff93d977c11U, 0x3d9bb2973c8d17dcU, 0x3dcfa0a93b997d2cU, 0xbd72c06c3cec121fU,
  0x3ddd33fe3df4423bU, 0xbd8c3b5fbd5928efU, 0xbc1105ce3d76b828U, 0x3dbdf585bdd22163U,
  0x3cc6ed47bd3cb0eeU, 0xbdaa35afbd247e14U, 0x3d8f4fa9bdc8d2eeU, 0xbcc1f582bcf3b3a6U,
  0xbcd3a48a3d83fe34U, 0x3cfab770bd949a10U, 0xbdf6d8cd3cda3f26U, 0x3d6323813c8c11b6U,
  0xbe06ad623d4cffb9U, 0xbd277e29bba2a4dcU, 0x3cb7d9523c86c528U, 0xbd95340abd8c8229U,
  0x3d8b1a94bd270aacU, 0x3c42182f3d074b22U, 0x3c8536bd3d6c2f0eU, 0x3d5117d6bd0ae3b8U,
  0xbe0d47fb3d77d5ddU, 0xba7f80003deb1543U, 0x3c00ebecbd268974U, 0x3d778777bcde73a6U,
  0xbbade4cc3ddbd564U, 0xbad540d0bbf9b029U, 0x3d9cd5463d04b675U, 0x3e199dac3d89aaf9U,
  0x3d83e572bdc94004U, 0xbda03ce63d4d1803U, 0x3ddf8d763de924b5U, 0xbc505da33cd0c199U,
  0x3c8b765dbde9bf74U, 0xbdec3062bca95df8U, 0xbd82442f3d85b852U, 0xbcb6cc74be0ea59fU,
  0xbd648cea3c97f406U, 0xbdb7fda1bd56008cU, 0x3d5509303d97f88bU, 0x3e00ac533d06c87cU,
  0xbdfaf4863c71fa13U, 0xbcc520ce3d907d7cU, 0x3e11ac853d0cd1dcU, 0x3d57a7d93dcce967U,
  0x3cd23ce63d29c540U, 0xbd1a676cbd1b3982U, 0xbd9d34d83c257a7cU, 0x3dcd82b63d094682U,
  0x3d88241ebd839eb1U, 0x3d653b0d3de01b6fU, 0xbcdc86e0bd45ced6U, 0x3d3cb9583d84a756U,
  0xbcccbb5dbd2a2976U, 0x3d7a2fdc3cefa450U, 0x3cb163133c0ae794U, 0xbd8c7310bcc7e819U,
  0xbd92a8e6be12fe9bU, 0x3d81cfe03da21bd4U, 0xbb5eb3643d5a577bU, 0xbd31fbbe3d31d2c4U,
  0xbcb79abcbe0b450cU, 0xbc88a6a7bbbaff3aU, 0x3c63fe123b1c3468U, 0xbd1263153da16e2fU,
  0xbcf60149bd6f85afU, 0xbc03eb783d84d281U, 0xbdaf25663d912c57U, 0x3cb3639a3da38a56U,
  0xbd85d191bdd1b5c4U, 0x3ca8223f3d9ced94U, 0x3d907f393de82011U, 0x3da826d1bbe82136U,
  0xbc999ceabc8d219fU, 0xbcd65b763d829d72U, 0x3d97a54b3ca17997U, 0x3e0a47053d4d35e5U,
  0x3c15adec3d8a7f9dU, 0x3dd1cf95be0d2902U, 0x3dada88c3dc57b74U, 0x3bbb95e4bd00d4bbU,
  0x3d7f43193da0ee1bU, 0xbcc90bf83d9fd641U, 0xbd6293543dfe20f0U, 0x3d99dfdc3cccba54U,
  0x3d621f0e3b376068U, 0xbcf02a633d2f208cU, 0x3e1355f83d213c76U, 0x3d4258e8bcb07f24U,
  0x3d8bf4773e2e72c8U, 0xbd53b5293d662922U, 0xbd9398b0bd335c04U, 0x3d8f2b403e2adb00U,
  0x3cd5dd7bbd040109U, 0x3cb43e0e3e009e88U, 0x3d836eea3dd066f5U, 0x3d435b8a3cc3c3a3U,
  0xbc5e2c5cbe1214daU, 0xbdd5d91cbda4eea8U, 0xbc564c153c46829cU, 0xbb811fb8bdd590faU,
  0x3d146dd73d4af5ccU, 0x3cdf8a723dca53a7U, 0xbd6fc7393d4a8b13U, 0xbd0669d8bdab358bU,
  0xbdeaef403d88749cU, 0xbc6d8823bd7e43feU, 0xbe03e9f93d8900bbU, 0x3d60dd9a3d916207U,
  0x3b6dfae03db77838U, 0x3ba82d5abba2ee60U, 0x3d6c3ea13e135f1eU, 0x3c93d7243db77e41U,
  0xbc1c5a923c1c1e32U, 0xbb8739cc3d0187e8U, 0x3cacb9d63d44a419U, 0xbdb0fba8bd0a3cdeU,
  0x3d212c44bd0e0259U, 0x3da232cdbd55fd5aU, 0xbd992a8c3e12cf4cU, 0x3d660f1cbcb7de85U,
  0x3c34b521bd8a694cU, 0xbc0b32a23e3a671aU, 0xbc015080bd19cebaU, 0xbc76fef23cefc3e2U,
  0xbb971b5fbd94dc29U, 0xbcd56f7abdc0bdfeU, 0x3e215244bb8fc2d6U, 0xbd1b8b1cbc8233b9U,
  0xbce8f2ccbd327e86U, 0xbc3d9e2c3d99f99bU, 0xbbb6c97cbd07a8baU, 0x3e2e0ea43c50f11bU,
  0xbd7507b9bd75c2f5U, 0x3d4166963e083ba2U, 0xbdbcca48bda46597U, 0xba23f0c0bc53e044U,
  0x3d07c75a3d15de3aU, 0xbca07c36bc25b198U, 0x3cd029063c30d751U, 0xbd00ef183e0c354eU,
  0xbdf7ba4abdde5064U, 0xbb82f228bc965859U, 0xbd88ef1ebdc44340U, 0xbd745b8e3c881b7dU,
  0xbb7d93c03d946a12U, 0xbd521e823d7e436eU, 0xbd1ff380bdb99d06U, 0xbda2c2403d2232d0U,
  0xbddb431e3d8d8285U, 0x3d1a82debd300368U, 0xbdc7d7653b39237cU, 0xbd755e7ebd77b9baU,
  0xbcf360003da2503eU, 0xbca775dbbd145049U, 0xbbe34027bcb91fedU, 0x3cdae64c3e0090c8U,
  0x3d6c5e133b2efd48U, 0xbe02d4c53e11a769U, 0x3cd24566ba8aeeb8U, 0x3d05aa86bb9edbc8U,
  0x3d53c5b2bca7c7e1U, 0x3dde79103b282afeU, 0xbdb0e4423dc332eeU, 0x3e1283efbc15b12aU,
  0x3daf0138bd303e4cU, 0xbc8b73a6bd6b310cU, 0xbe22878e3c1d8561U, 0xbd56c4e03d2aa7f8U,
  0x3da84b6bbdd48d8eU, 0x3dc6bc083d1b2f80U, 0x3d1418cfbd6c3514U, 0x3d57dbacbccb69e6U,
  0xbcfd47d639b56dd0U, 0x3d8421b9bcb1f43cU, 0xbd62a37bbd06b33cU, 0x3baf25e93d88c4d1U,
  0xbd958a413de8a0e2U, 0x3cbfa6c2be194f5fU, 0xbd1d88583dd1a518U, 0xbe1068de3c2f0f07U,
  0x3d7e67453e356297U, 0x3c3feec53cc336bfU, 0xbd926d133d0f3d30U, 0x3cd7667dbdd440c7U,
  0x3d17c200be052dcaU, 0x3d55c2d4bc9636c6U, 0x3e18a9b2bbd759a8U, 0xbdd2d7843d924b7aU,
  0x3be1cb983e000064U, 0x3e3029443dda807fU, 0xbd8976d23c8a1e0eU, 0xbd37ef40be06e8caU,
  0x3bad3d28bd2ece0dU, 0x3ddbdb48be3f5418U, 0xbc8fa7ccbd084ea7U, 0x3d8085a6bd38bd47U,
  0x3dac1603bde72328U, 0xbbd8e1fa3d2ac32bU, 0xbcb127243e0e8446U, 0x3cb4f4f23d339a0fU,
  0x3c77aeca3dc89c3aU, 0x3d2546603d667ac6U, 0x3d2337e8bd2b8e29U, 0xbdafb2b93d4d803fU,
  0xbd3ae89e3d19711eU, 0x3d59cd30bd551ab7U, 0x3b3dfde0bd00c802U, 0xbe158d62bcf78f07U,
  0xbd40cb35bcc71dbeU, 0xbd4ef8803cc54495U, 0x3d1fd25abd760ceaU, 0xbc7af2ec3d0ec821U,
  0xbb3bfd083c97077fU, 0x3bf7bd2abdb0ee44U, 0xbd0b6f0a3ce85382U, 0x3da8279ebe12eaf3U,
  0xbcf616c43d47865eU, 0x3bf9b4323df42956U, 0xba7ea2c83be9a9e7U, 0xbe0bd505bd9c58a8U,
  0xbd59ccf0bda25996U, 0xbde1be3a3d82613bU, 0x3e3c43c63d5320d6U, 0xbdbd95aabc072526U,
  0xbdbc7042bdb7d369U, 0xbcd4cce2bd83a4c1U, 0x3cab111c3bb26750U, 0xbd668eeb3db459daU,
  0xbd912c94bc8c4037U, 0x3d77b4d03d2a43a4U, 0xbd155f08bdea84c2U, 0xbda543e4be0be44fU,
  0x3d2860a03d0335deU, 0x3d040244bca81e8eU, 0xbe0d610dbe0deca3U, 0xbd94552c3dd26353U,
  0xbdb6b406bd3650a6U, 0x3d76f093bd297cc0U, 0x3bfba85c3ab9ad00U, 0x3d390a873d661622U,
  0x3cac0a273d800728U, 0xbc502a34bdcd832dU, 0xbcabb8c5bd5dc5ccU, 0x3d2a9d54bd385983U,
  0x3d9a9a6bbda8d4beU, 0xbc89a4dbbd50b0daU, 0x3d9e8d53bcaeda0bU, 0xbc0ee176bc4c2248U,
  0xbc9303663cc228f4U, 0x3da160f03d8d344aU, 0xbd98cfa83df6b82eU, 0x3cd1c50a3d86ba07U,
  0xbd02963cbcaad368U, 0x3c893643bd9420b8U, 0x3d32aa2cbcb8b056U, 0xbcf114c63cf20688U,
  0x3d05f61fbd2e90e0U, 0xbd7b2288bda29405U, 0xbc676a0cbcaad816U, 0xbcb1ec2a39684680U,
  0x3a97e8d4bc78efc8U, 0x3ce1d8d0bddca0e4U, 0xbd1bb16a3e1790b8U, 0x3e06b0b6bdfadebeU,
  0xbcfd5eba3b0a68d4U, 0xbd51adc4bd24872bU, 0xbde3457ebc935d79U, 0x3d4203723d8d8bfcU,
  0xbd6b23083ca2171fU, 0x3d63d4fcbd990bd6U, 0x3dc4fcb3bd05c6b6U, 0xbdbe059a3da91fa7U,
  0x3cc27115ba904aedU, 0xbc7111d5bdef904aU, 0xbce3e1ea3d046b1cU, 0x3b8a95b43d1c56d7U,
  0xbdee1704bd1acc36U, 0x3de40347bd966866U, 0xbbecebe23c4ec042U, 0x3df08a3c3da13d1aU,
  0xbda81e0dbc81bce4U, 0xbc87ea9e3db48d0cU, 0x3c814e393e42ec12U, 0xbd7042463daee57fU,
  0xbd7bf5983e20f04fU, 0xbc2898ee3b836350U, 0x3d82fbc939f43ea8U, 0x3c39995cbe13af18U,
  0xbd766ebcbca67b66U, 0x3c4328d03baabadcU, 0xbcd8b4c6bd31be6aU, 0x3c3863c43d711db7U,
  0x3e03df233dee4afdU, 0xbe373abcbd19624bU, 0x3d9671643db2be74U, 0x3c8fde0c3c8b432bU,
  0x3d8b1c8fbd2572ceU, 0x3d054984bdc8e1d0U, 0xbde9307a3ce444f4U, 0x3db011943dcae78eU,
  0x3c804be4bc75b9d2U, 0x3be76df6bc5eb66eU, 0x3cf2e8763c8d870aU, 0xbdab7ea5bc02d744U,
  0xbda91391bda2e158U, 0xbd8f826ebd83b217U, 0xbc0d19613d888a29U, 0x3d1cb8813d54fd7bU,
  0x3c5ed283bd0edd2bU, 0x3c896aea3c1afa1cU, 0xbdb5126fbd99d525U, 0xbe18f7bebda4695dU,
  0xbca9f1e2be0e7596U, 0x3d1db58cbddcc603U, 0x3d3e684c3cc62ce6U, 0x3c54a2243e06b7e4U,
  0x3d61faae3d8987d9U, 0x3d4e05883b2847e8U, 0x3bc9a568be1c2bd4U, 0xbaa65880bd2f5366U,
  0x3d8987df3d8368ddU, 0x3d5f52173d8299e1U, 0x3da4dbe63d793926U, 0x3d35c0b0bd2abf02U,
  0xbd12b8ce3c68272aU, 0x3d3fe6023d0722baU, 0xbb123690bd546ea0U, 0x3d92a1273dd38808U,
  0xbd7e9d9ebd52cee0U, 0x3d80fd9abdc9d03eU, 0x3d856ea33d69b0f9U, 0x3d3382213dc91126U,
  0xbc479bed3db35032U, 0x3daf14ba3c82361bU, 0x3e1aad063cdf8840U, 0xbd9a2c583d2e5e48U,
  0xbd64b7b33db7232dU, 0x3c1f346cbc1185ccU, 0xbc3fb4c4baa809d8U, 0x3da5fa3a3d418f57U,
  0xbd02f90c3ca86087U, 0xbc3745da3d388fcbU, 0xba6a4e60bd27937aU, 0xbda6a97a3d9cfd36U,
  0xbd185f95bdd6a338U, 0xbe0cabc33dd72460U, 0xbb2186d8bdb46c4fU, 0xbba80ab53cc303e7U,
  0xbe0d1da2bd3ac5b2U, 0xbd62b4cabd8fe8f1U, 0x3cbdba553d3ae8aeU, 0xbdaa5814bd45ab48U,
  0xbd070800bdbedf25U, 0xbac1a5e43bf68290U, 0x3c67741e3d97b703U, 0xbd6e1b643c8d1202U,
  0x3db3fdd73e082218U, 0x3c498b32be043fbeU, 0x3c9bf530bd9bf3fcU, 0xbd97ec24bd895dcdU,
  0xbe088465bdb339efU, 0x3e7303b03d0222e7U, 0xbbbfcf9dbcf62562U, 0xbad01490bd914ab6U,
  0x3dbe405cbd55e856U, 0x3dbba6fa3d02b7c5U, 0x3de3d9fe3c5c2910U, 0x3d03fdeabdfe17c0U,
  0xbda8c421bdab999eU, 0x3d7c4feebc913018U, 0x3dd08404bc4bceffU, 0x3de48b8e3d8544c9U,
  0xbd51623d3d8b474fU, 0xbe15c87dbbce2d20U, 0x3dbaaa283da148b8U, 0x3d9f87843c01198dU,
  0x3c8c7a7c3dd1be44U, 0xbd7cd8553d823c6eU, 0xbdd7037a3d9e3494U, 0xbd84cdca3cf5113dU,
  0xbe1c7260bdfe3c9fU, 0x3c9ecb78bc919868U, 0xbb6dfa34bd8f168aU, 0xbc6105443da414caU,
  0xbcb7bbf4bdef0db6U, 0x3dadcf80bb848830U, 0x3ca3aa08bd98be36U, 0xbda60dc03be0fcf4U,
  0x3e4ce2393db719f4U, 0x3dc06e923db19c00U, 0xbce32d38bce5d0c4U, 0xbccc331a3dcfd34eU,
  0x3d47d2ef3d3bc828U, 0x3cdf27c73d8cc163U, 0x3c9343323c83e676U, 0xbcd44eaf3d83c09aU,
  0xbcdd1a5cbd6073dcU, 0x3ca6ea6a3d8b2549U, 0xbd3c9562bbb59586U, 0x3ca166713e04a16bU,
  0xbb00c488bd457492U, 0xbdcb18a83ddfd396U, 0x3e0b210e3d923a71U, 0x3e06cce23d922fc3U,
  0xbd8ae4313c55bfb2U, 0xbcd9cce03d87ef31U, 0xbdb7c2adbd15c870U, 0x3e02609bbe0cbbb4U,
  0x3d6386483cdc6484U, 0x3d8f4209bc852e69U, 0xbd9b3e83bc16b6d0U, 0xbd1963eabd731184U,
  0x3da0b11c3d5732d6U, 0x3d7a2b23bd150c6fU, 0xbde168a5bd2544cdU, 0xbcee380cbd0ef043U,
  0x3d7cbc4ebda5bd14U, 0xbdd1c02cbdf8ce89U, 0xbdcffed7bc88c83fU, 0xbde80ed33d2c5faeU,
  0x3d7c92f43def026dU, 0x3d4364bcbbcf2b6dU, 0x3ce290763d4bef96U, 0xbd265b393d50fd96U,
  0x3c33aa283dd46076U, 0xbe00729b3d00fa03U, 0x3b160b7e3db7f720U, 0xbdb8f2a03da18e51U,
  0xbc4fd43cbc153ac4U, 0xbbd4743cbd87391fU, 0xbd1cb140bb03eb8cU, 0x3e10cd3abdc875ceU,
  0x3dddbcfdbbb2bceeU, 0xbc838ef2bdab4c68U, 0xbe172e3a3d1c6a10U, 0x3d8c9880bd9ad3a2U,
  0x3cabc5023c81df47U, 0x3d9c766fbe059cd0U, 0xbd90dcbd3da5fc4bU, 0x3d896efebdc10ab2U,
  0xbdaf47303e0254deU, 0x3d231824bce8eb25U, 0x3d43cd81bd82df8fU, 0xbc5990b33cfb5b6cU,
  0x3dbb8271bd217a99U, 0xbd407bafbc8f0799U, 0xbc6bf1203cfb74a4U, 0x3cbb6f463d0bbc38U,
  0x3df0023bbc3111fbU, 0x3d2be7613cc33d19U, 0xbda628efbd0320b4U, 0x3df63a763d02c13dU,
  0x3d023ea23d3fb6e1U, 0x3d7981183e1a4c2dU, 0xbd8bc9143dc7d1baU, 0x3c5cff0fbde9af9fU,
  0xbddf830fbd284939U, 0xbd5e7c54bc1043d6U, 0xbb978698bcd50099U, 0x3cd6b9e8bd5c8bd6U,
  0xbe0f1872bd00a8eeU, 0x394535803dbedc22U, 0xbd721b1fbd27f52eU, 0xbbaaf4043d013356U,
  0x3afe8710bd2ffb6aU, 0xbd6d138f3d4aa638U, 0xbcce0cf03d7b0664U, 0x3d87b78e3d3f935eU,
  0x3e12005abd1d14c2U, 0xbdb840013b88f470U, 0xbd63a967bda4d0a6U, 0x3b6d44463a8ff7adU,
  0xbd9c7ba03c253072U, 0x3c20c812bbff5c09U, 0xbd1472d53c05ce22U, 0x3d812f3d3cc613d3U,
  0xbb3568283dcc3da3U, 0xbd9bafe33d5bd16cU, 0xbdff3b583cc3e95eU, 0x3dcac3b63dc553b1U,
  0x3d56a8c3bd656724U, 0xbd2e2ea63e43db59U, 0x3bffe1403d62eab1U, 0xbdbb91c13e01e2d2U,
  0x3dbf49123d89283cU, 0xbdf310a8be092c7bU, 0x3d17c0bc3d82a8abU, 0x3e10b1d93d471474U,
  0x3b3a45803d48d06eU, 0x3d0da424bda81802U, 0x3d20fb023aa5b810U, 0xbd1c31cbbcc2c7b7U,
  0xbd0215c13d5733e3U, 0x3ddead0a3c591fcdU, 0x3d6b90f83c7e056aU, 0xbd924c1d3da47733U,
  0xbd483228bc70e79bU, 0x3cfd681a3e21b8a0U, 0xbc4a54e0bbf2d717U, 0xbd456c1abd646cb6U,
  0xbd108e013c853164U, 0x3d48606cbd406188U, 0xbc7a7d2ebb1c3b48U, 0xbd8d70103d777782U,
  0x3de4de2b3d0f58f4U, 0x3debd3af3e067490U, 0x3c9f194e3cdbe77bU, 0xbd12e523bdeca636U,
  0xbdb4d317bd47f662U, 0xbe1da12e3cc5da48U, 0xbdbb38e2bd6f208cU, 0xbd6c2cef3dd54adeU,
  0x3cb2e1fabd7d7954U, 0x3e27cd043d276464U, 0xbdc73b0c3d22505eU, 0x3c9078aa3c526257U,
  0xbc706184bdb83087U, 0xbdb23c73be26f4cbU, 0xbdbada283deb17f4U, 0xbde8f44e3d4e47c5U,
  0xbd3429c4be2ba6ddU, 0x3c9eff6bbca4e6d9U, 0x3c433c7d3d62d2aeU, 0xbc5fe20cbcac6751U,
  0x3d10702cbda8a99bU, 0xbd8d543fbe05b3f0U, 0xbdc16eeaba7bad98U, 0xbd7fd9263d6dc9a5U,
  0x3cf9d2ff3e06655cU, 0x3cd01a14bd65c02dU, 0xbd0b6a993d605e57U, 0xbe16622e3c216492U,
  0x3cd508513d234cdfU, 0xbd0b3e903c3beaa6U, 0xbd4a86e93c0d0be8U, 0x3dd98feebcd2bf6eU,
  0x3d3bd9e63bb895e6U, 0x3d8ccf9cbe0850fdU, 0x3ceb35763c464874U, 0x3c81a1633e253aeeU,
  0x3bf69f48bc3a3ed2U, 0x3e1a6db2bd4caab0U, 0x3d47e8513e0dfb06U, 0xbc6575a4bd1663d6U,
  0xbcd2c0e33d59a8fbU, 0x3dc4b7f9bd96dbbaU, 0xbd71ac563cf7aa47U, 0xbdc2242bbcd69ef1U,
  0x3df63288be3ed01dU, 0xbbb0ed8c3d4c6848U, 0x3dc9f10e3cde0e00U, 0xbd868f6ebc9bf3f9U,
  0xbcb1b0e8bdbd6317U, 0xbd9f83c33cd17df0U, 0x3c9e6cfebdb720b9U, 0xbd597f5cb8c485c0U,
  0x3d47b04cbc13fe24U, 0xbd8a8bc6bcf86a2eU, 0x3dee49243cac9e6eU, 0xbcb78bb83d0cf41fU,
  0xbd6c1b5c3bab2eecU, 0x3ddcf2e63c075f48U, 0xbddb88a2bdb980b9U, 0xbd5666b23dd35057U,
  0x3bedd710bcc0766fU, 0x3cfd72ac3dcfa506U, 0x3e033e533cadea01U, 0x3c75b8b0be011efcU,
  0xbd6711f43cd85badU, 0x3e26e6d4bdf97a04U, 0x3daed9b63befcd60U, 0x3d6bcec23de8e1cdU,
  0xba9b67a1bd0f37e6U, 0xbcb18cc83d78af53U, 0x3b0f42ad3d2c0d81U, 0xbc959de73d565909U,
  0x3da1b95b3d89ff6cU, 0xbce8ff6d3ccb3d90U, 0x3daa716b3d99f74dU, 0x3c4bd40abd40a7d6U,
  0x3c142b68bc64e017U, 0xbd74aa753d933790U, 0x3ba8fcc3bb90a67bU, 0x3d2270a43e1bea05U,
  0x3d25b8283c9a5311U, 0xbdc4d5fbbd2501a4U, 0x3c73e77ebdecb69aU, 0xbd79a2eebce64ae0U,
  0xbcb1d471bd902cd0U, 0xbda0b2933cfa0b94U, 0x3d8723d73e1182abU, 0x3bc2a1c8bc3fb738U,
  0x3b492310bd5bf611U, 0xbcaa672f3dc18cd6U, 0xbd50879d3e129deeU, 0xbe0271d3bcf2db4bU,
  0x3da84548bd73a7a0U, 0x3d7b46a53d2e16b0U, 0xbdc6e21cbd335a49U, 0xbd4d5903bd745ce8U,
  0xbcad907abc20d59dU, 0xbdcad1a5bcd2d335U, 0x3c894d4dbd0380ecU, 0x3da74ddbbd707966U,
  0x3d1e559e3e61177cU, 0x3da252f93d1fb638U, 0x3ced8382bd2fc717U, 0xbcac5722bd19332dU,
  0xbd2cf395bd8e79fbU, 0xbd29fb753c0a22a8U, 0x3cb5491e3da3a294U, 0xbe07fd0a3c7c3d70U,
  0xbdab099d3d160f34U, 0x3d904930bc48d938U, 0xbdc5f25cbd9efe09U, 0x3c0e12c4bd2069d0U,
  0x3c42f7083cb4e184U, 0x3de32770be2ffc89U, 0x3d0d8d393d913900U, 0xbd31eb7c3da24ad8U,
  0xbd13f9b2bce63ec7U, 0xbce804de3d82f949U, 0xbd0dca1a3d3558a5U, 0x3daca0a6bde16489U,
  0x3cf13e5fbc394c88U, 0xbadcb690bab55553U, 0xbc03f8203d4e5d5dU, 0xbd5599c3bd28d1f3U,
  0xbe0be7e5bd5b775fU, 0x3cb0a6343d2105acU, 0x3d5f5e2fbdbbd98aU, 0xbc5763a73d0d7ea8U,
  0x3d999d963c31947eU, 0x3d95d1fc3d67596bU, 0xbcd22574bd589068U, 0x3d8f19a7bd93edd8U,
  0xbdeb21e8bd8393baU, 0xbd6c5392bd749c19U, 0x3c80047d3d83642eU, 0xbe0bb30abc5033f6U,
  0x3e95fee73d7438eeU, 0x3cd2fe48bd2181acU, 0xb89de5803de30c55U, 0xbd69cceb3debb590U,
  0x3d6f9f74bdad05eaU, 0xbcba2884bd8aae46U, 0x3d0bd498bd056bf0U, 0xbdcef2583e220a27U,
  0x3d8598143e63bc2aU, 0x3d05aa533ca3a498U, 0xbccf3800bdfd339dU, 0x3d19afc4bbba0ddcU,
  0xbca61dc3bc944932U, 0xbd578448bd332a8aU, 0xbbc983b13d4bee7aU, 0xbe17c91c3d820eacU,
  0x3cf26f793dbf4b85U, 0xbdf9f1c33c92d1f0U, 0xbc1654983d2096a6U, 0xbc9ba0613cee879eU,
  0xbe124f233cc5acdfU, 0xbcfcef99bb354fc6U, 0xbd6d4d4fbda8a5caU, 0xbc962214bd9550f0U,
  0x3d8666163d2b27afU, 0x3dc2fa8d3c6d388cU, 0x3de0b51cbdd8e984U, 0xbd291ae0bdba9cbeU,
  0xbc098b1e3d155bfcU, 0x3e292231bc689f40U, 0x3c31180e3d8b91f0U, 0xbdbb50f2bdbed018U,
  0x3db0d08d3c962344U, 0x3d237ecbbddbea20U, 0xbda4ea47bdb541f8U, 0x3d8f61a9bdc8472eU,
  0xbcb0ff13bd130836U, 0x3dac3d23bc20647aU, 0x3dab04373cc49674U, 0xbd48c398bd7da30aU,
  0xbdb42db7bd8406e5U, 0x3d0849303d1d7c5bU, 0xbc03b1fe3cbae45aU, 0x3d517d32bd1e2aebU,
  0x3d6623723d15cd5bU, 0xbca6ee5e3e09c842U, 0xbd2012153e043fe8U, 0xbe1f64afbda64f06U,
  0x3d961d2b3d912022U, 0x3d824f17bcb52cfaU, 0x3dbee9a23c2edf45U, 0xbcbeef6e3e1bb3d7U,
  0x3dbd42b23dc235bcU, 0x3e23ad15bbea4b40U, 0x3d295af23ca3723aU, 0xbc218d153d574b46U,
  0xbd0978e6bb320e42U, 0xbc909300bd5208f0U, 0x3d3d3d673daf6feeU, 0xbc8040113c2e6dccU,
  0xbb887f63b99aee40U, 0xbd93ace23be0573fU, 0x3b7595103dde57a6U, 0x3d729e70bd61be69U,
  0x3db279293d83aa4bU, 0xbd84a6b6ba8e75a0U, 0x3d972f873dfad24fU, 0x3df46da0bcbda944U,
  0xbc5c3ac23c8c6ae4U, 0xbd94853ebce4ede3U, 0xbc1dd5ad3d0df3eaU, 0xbd6a443d3cd13be6U,
  0xbd13b4433d5f73c3U, 0x3cbc9c183d84412cU, 0x3d0f270cbdbda1adU, 0x3d5da7aa3e136207U,
  0xbd7ac994bd5a1d3cU, 0xbd7da1b1ba087100U, 0x3ddd9b2c3d3abb80U, 0x3c5de565be038c45U,
  0x3cc010023d5009d5U, 0xbce2f244bdf92912U, 0xbd0d7d9d3b54ba64U, 0xbca1246cbd69900eU,
  0x3d9fa8b53e12ebf7U, 0xbd2458773c86164aU, 0xbcc6e16abd565824U, 0xbd143b5fbc4b1a4cU,
  0xbd5a85c73e255156U, 0x3d1a4b6abdf93a18U, 0xbc0ef57cbd478aebU, 0x3e44509e3d2eeac7U,
  0x3b24e78b3e0e97fcU, 0xbe11ea7b3c907404U, 0x3b707c403ced9be0U, 0x3d7049003e1116eaU,
  0xbe03eebfbd80c012U, 0x3e1e9d52bd46ed3fU, 0xbd75b81ebcc8d0e4U, 0x3c5863b0bd4d6e42U,
  0xbd877ea2bd3942bfU, 0xbd08791dbd38c062U, 0xbe04bfafbd3c0a7fU, 0x3cc9f5fe3c53aec6U,
  0x3cb2596f3e1ae7a6U, 0xbdb33fd03d249e80U, 0x3a463b44bc206fffU, 0xbd1516eb3d895952U,
  0xbceda6ed3c2e4ac1U, 0x3d1801a83e3bc9c4U, 0x3d8ce1dc3cd13fc4U, 0xbe027ddf3cbc7020U,
  0xbdd45fd5bdaa7681U, 0x3d57a0d73bbdd7e5U, 0x3cc12524be24c2a6U, 0x3d12aa993d0e658aU,
  0x3d62f3a1bd685724U, 0xbdd9aad3bd86f1eaU, 0x3ddfec483da6d8a0U, 0xbc566094bd0a1e79U,
  0xbc8f25c83d43586aU, 0x3d51f02ebc863f36U, 0x3d8dc829bd073f37U, 0x3db58238bd265e62U,
  0xbc6ecfc3bb104320U, 0xbdca26fc3d99fb51U, 0xbaf8e218bd3078e6U, 0x3d6d65e03d4f33feU,
  0xbd123b81bc3944b6U, 0xbc085ac43bcdcab8U, 0x3de6c0b9bc5d72a1U, 0xbdda6ecc3da36ce1U,
  0xbc73b55a3e02ed0eU, 0xbbe69db83cc87156U, 0xbd42c3fabcc557e9U, 0x3e1596a93c884d28U,
  0xbb881cfe3ced657aU, 0x3d8856aa3d376c22U, 0x3daf17e5bc44b068U, 0x3e08752cbdd1c6d5U,
  0xbd4d5a723b0823a8U, 0xbd2aba1cbca8bbbcU, 0xbdcc33b13be91648U, 0xbd25cac83c5eb605U,
  0xbd1c33723d2efd8cU, 0x3d51cb853c27bc4aU, 0xbce9abe3bd4b6b41U, 0x3d9df922bd327486U,
  0x3c94ae5aba863d9cU, 0x3ddce3ddbc9adf2dU, 0xbd47a919bdaf0757U, 0x3dc8d068be0977bfU,
  0xbd205f6f3aeb942dU, 0x3da38985bd8b03ffU, 0xbd8a408bbc832e88U, 0x3d2162993de48fffU,
  0x3aa64b9a3c277d3aU, 0x3cf084c93d68cecbU, 0x3d92f1233d8943f9U, 0x3b88af383d220f96U,
  0x3b2c64223d99de06U, 0xbd578b39bd28d7fbU, 0x3b07ce60bc48368bU, 0xbc1bf839bd400c5bU,
  0xbd80d33c3da0cb3bU, 0xbd2eb684bd2be1f6U, 0x3de131aebc5654d8U, 0x3dc679c83dc30f72U,
  0xbd9d07f8bdac2a2bU, 0x3cf0062c3b10eccaU, 0xbcf67c873d5f8669U, 0x3e202ec03d33adb2U,
  0x3b0a26a83e039480U, 0xbdb313f73c01ba2aU, 0xbd3bc373bc19802cU, 0x3d2ae7a33df53c23U,
  0x3d9ed1fdbd1040f3U, 0x3d5488a7be25e64bU, 0x3daaadecbd218da4U, 0xbdc4dcbb3dd3b320U,
  0x3d4a729e3dc66017U, 0xbdcd55f0bb6d3796U, 0xbcabc1083d5f07e2U, 0x3c9b51d2bde6a72eU,
  0x3d2eb92ebc9eeb34U, 0x3d0006ae3de3d262U, 0x3cdaa4babcd409bbU, 0xbc256f52bc20d9adU,
  0x3e0f44153c589bc7U, 0xbd7a67e03d4b083dU, 0x3d3b2f86bd59f402U, 0xbc0e13a8bc561eb2U,
  0x3d4c42353d285508U, 0x3cb05b823d7af87aU, 0xbdbab435bbdf24d0U, 0xbded0d773d93c971U,
  0xbd84fd093e231987U, 0x3cc8b1b13e070920U, 0x3d86df233d4e340cU, 0xbd3760f93bbbbce1U,
  0x3bd634d83d23c858U, 0x3d8c9593bc9f4422U, 0x3d8eabe13d8431e6U, 0x3d459d54bc911306U,
  0x3d99297e3c609202U, 0x3d836b7cbcbc7ccfU, 0xbe220efabcdde6b8U, 0xbc30fc5fba962fb0U,
  0xbcb5e0123d65a9dcU, 0x3ddb8e483d320fc8U, 0x3cf8d3003df032feU, 0xbdc1d3b43c81ca9dU,
  0xbd157b2cbce813e2U, 0x3c86e00f3d99f4f9U, 0x3a96a8003ccc81dbU, 0xbcf6531a3d895cf6U,
  0x3c9889a33d80b294U, 0xbc10ff913d6b51feU, 0x3d2db47d3d923d4cU, 0x3d3268a7bce5f615U,
  0xbd78735fbd8cbdceU, 0xbdbfdfa33da9f325U, 0xbd84eacd3ca27577U, 0x3d4ade3e3d7baceaU,
  0xbd88ee14be1fe1a5U, 0xbbd09de0bc0ae843U, 0xbd9201c93d9d6918U, 0xbd8848943b549d80U,
  0x3c896698bd33c4d5U, 0xbd7797e8bd4ea756U, 0xbc4d21743d963eb6U, 0x3bb7a4d3bbf2496fU,
  0x3c6d5a8b3caaf922U, 0xbddc0bd73d9d0c92U, 0xbdb162c03e2096beU, 0xbd4a01273e087ccbU,
  0xbc66c58e3de3d046U, 0xbe26bd96bc10accdU, 0x3d5573d2bb81ed78U, 0xbd91bc783d478d65U,
  0xbddc548d3bcf9a42U, 0xbdb49aaa3da24174U, 0x3b472df6bd61d378U, 0xbc0ccf50bd59b3c0U,
  0xbcbbee403d9cb13cU, 0x3d84c80b3c9137ccU, 0x3d898a50bd3885ccU, 0x3c90d7043d6b8c4eU,
  0xbd1b15493dd477feU, 0x3a52f9003cd3e05cU, 0xbd37f5383c8ec564U, 0xbd7b77083ac729c0U,
  0x3d90351c3c943423U, 0xbaa76ac03c5ad14cU, 0xbc4403963dac6bc2U, 0xbd37e7f6bbd34ef0U,
  0xbdc07baabc45c213U, 0x3d88f36bbd358d22U, 0xbcb097683d4fedf2U, 0xbdf98aaabd838605U,
  0x3dbe805b3cb67a07U, 0x3e0610883d05a6f2U, 0xbcb8695fbd797f1eU, 0x3d2c0283bd9aefe8U,
  0x3bfb09f4bd63b19eU, 0x3e22c1543d566758U, 0xbc44008abbe49826U, 0xbc5a5ac0bd9daea2U,
  0x3d9cb936bd1e7f39U, 0xbdce9a5d3dc2397cU, 0xbcc96f243d7e62d4U, 0x3d0ee05a3d582f01U,
  0xbc71a0a43deaf97aU, 0x3d2ee51a3dbb002dU, 0x3cae813fbd02abd0U, 0x3a419f003d0bdcb7U,
  0xbd65ef47bda43858U, 0xbca906f1bd44ebfbU, 0xbc5135e0bd030b57U, 0xbccb52ce3e0c98fcU,
  0x3ca2fdfa3d521c4eU, 0x3d904215bd865de8U, 0x3d38ece33d0b526aU, 0xbde819193c29a614U,
  0xbd177bc03d3d4355U, 0xbaf4a5503da8ec32U, 0xbd0eaac7be272eb3U, 0x3dae90ab3e012396U,
  0x3b4671fc3d81f02eU, 0xbc4b1104bda1d5f6U, 0x3db7899c3cca0c0eU, 0x3d043871bca37f03U,
  0xbd5a715a3b5e8aa0U, 0xbc3223483e243107U, 0x3c300b40bd9252f0U, 0xbbe44eb93e1c6aa1U,
  0xbdb65d493aa3a2c0U, 0xbd957f693d4120aeU, 0x3dd4175abd0c1d20U, 0x3d56cf48bdccca99U,
  0x3d74e3553e02030bU, 0x3d77cce93c81dc0eU, 0x3d10c2943d96b704U, 0x3c973a12ba38a080U,
  0x3bafdd30bbfc73f4U, 0x3d275514bd90925eU, 0xbd2d36e53da16159U, 0xbe11eef63cfe511cU,
  0x3c42b5413b5adb12U, 0x3cfa4b7cbcef4c22U, 0xbd0e8448bdd1520bU, 0xbb563b94bb99cfe4U,
  0x3c68cdd63c743739U, 0x3dcb0f9abda6a0a2U, 0x3dfde4ef3baf6457U, 0x3d26e0d13c632e84U,
  0x3d4d2665be11cd86U, 0x3e18d21fbe22d6bbU, 0x3d18322c3d4687beU, 0xbc72dd17bce2f999U,
  0x3dbdf63e3ce801d6U, 0x3ccb091e3d3ae736U, 0xbd449952bdc080e6U, 0xbd454692bd1c9ce5U,
  0x3da7a212bbfcbb28U, 0x3cec67aebe3973b6U, 0x3dbdd06fbd7a1d61U, 0x3d81afa63ddb361eU,
  0xbbe630fc3c28ab84U, 0xbd949dfcbc0e54f0U, 0x3d5dccc13d36c246U, 0xbd00f5783e254f71U,
  0x3dd8c40ebe0c99b4U, 0xbcb4d8e43d277315U, 0xbd8b90c5bddbad8cU, 0x3d9a2c173d132d08U,
  0xbcdb6523bd6dd610U, 0x3c47ad653cd52f29U, 0x3d32f325bc70c3eeU, 0xbc82b7403db2c1e8U,
  0xbd1f1ca43d51f16eU, 0x3d8d76ec3c662a4cU, 0x3d3e6b8fbe0f13e1U, 0x3db1c81cbcb782fcU,
  0x3e0876693c3a74ccU, 0xbce4aab33dc9c559U, 0xbc12d0883d2075caU, 0x3d2230c1bdaaf633U,
  0xbd5cd642bcc0144cU, 0x3bf751d23be4a718U, 0x3d0c10eb3c46ef56U, 0xbe4accf23cb39cadU,
