/**
  ******************************************************************************
  * @file    network_data_params.c
  * @author  AST Embedded Analytics Research Platform
  * @date    Mon Mar 11 19:17:44 2024
  * @brief   AI Tool Automatic Code Generator for Embedded NN computing
  ******************************************************************************
  * Copyright (c) 2024 STMicroelectronics.
  * All rights reserved.
  *
  * This software is licensed under terms that can be found in the LICENSE file
  * in the root directory of this software component.
  * If no LICENSE file comes with this software, it is provided AS-IS.
  ******************************************************************************
  */

#include "network_data_params.h"


/**  Activations Section  ****************************************************/
ai_handle g_network_activations_table[1 + 2] = {
  AI_HANDLE_PTR(AI_MAGIC_MARKER),
  AI_HANDLE_PTR(NULL),
  AI_HANDLE_PTR(AI_MAGIC_MARKER),
};




/**  Weights Section  ********************************************************/
AI_ALIGNED(32)
const ai_u64 s_network_weights_array_u64[25784] = {
  0x3f01ee693ebaf262U, 0x3ed55f293f005032U, 0x3f01194cbe0511daU, 0xbd8c1c503ebbc20eU,
  0x3f7749c0bf789e89U, 0x3f89e27b3f53e314U, 0x3f4dbd2ebf8b69fdU, 0xbf454a983f990f69U,
  0xbd229fc23f212a20U, 0x3e53cca4be99dd8bU, 0xbd99b4fa3e617374U, 0xbc2fd1c0bd58ce48U,
  0x3c8b417d3ca43411U, 0x3bf9172f3df28298U, 0x3e56a182bd5ce361U, 0x3e9601d43e905d25U,
  0x3e88bc25bc5b4e58U, 0x3e8c52413e8a57cdU, 0xbc5701903e1ee1a4U, 0x3e3174e73dad50b8U,
  0x3e5ee78e3c3e3120U, 0x3d4d44da3c9317e4U, 0x3ea6b537be58f1edU, 0x3e671100bc0b5795U,
  0x3e7f4e07bd9faa90U, 0x3db7aab8bb914d1dU, 0x3b3441aa3e36a520U, 0x3e9b0e703e82d162U,
  0x3e93ad69bcb55dd3U, 0x3de3c7ab3ab5b68aU, 0x3ea7892e3e351b4dU, 0x3e2ab5783d9e048dU,
  0x3d1a4aefbd50b7c9U, 0xbc90b5373d202cbaU, 0x3be1d9cd3c6e71baU, 0x3e532f833d6ecddaU,
  0x3cabd34f3d85bf7eU, 0xbaef27bcbdc10ef8U, 0x3e88d5243e02a6c0U, 0x3e25e623bc335675U,
  0x3eaada22bd3775f2U, 0xbcee2eea3dc3ed17U, 0x3eb368a7be240500U, 0x3ea4ef5ebc2eebefU,
  0x3e17d9f1bc549802U, 0x3e69c7083bc6e88fU, 0x3e61df27bda24cc1U, 0x3d09cab33d21f12cU,
  0xb6c85020bd40c4d5U, 0x3e6852f1bc03e9dbU, 0x3e922ab1bb34afebU, 0x3e2f4f863e7ebe44U,
  0x3e5f4bfbbca7948cU, 0x3eae407a3d920c3dU, 0x3ee44087bc5cd6b7U, 0xbd93cfbbbd99836eU,
  0x3ec076bebd10e4ddU, 0xbdf3bf97bc2019f0U, 0xbda5217d3c5ab2e5U, 0x3d89917ebe19de9cU,
  0x3d03d7b83d01712cU, 0x3e111d953d2b80b8U, 0x3d66658cbe043596U, 0x3e2ca6ff3db24b4aU,
  0x3e268837bc08e300U, 0xbe2ce7f33db548a2U, 0x3d8c136a3e14e9e1U, 0x3e27f16d3d626058U,
  0x3d7e6db83c594380U, 0x3e119de93d65f00cU, 0xbcd14e08bd03d5b0U, 0xbe2d5f5abb7443c0U,
  0x3d92242ebe059ebaU, 0x3daa2bdabe3015eaU, 0x3d773a38bd348414U, 0xbe059e643d53c45cU,
  0xbda7a6ecbd5b746aU, 0x3d6b83a0bccc9448U, 0xbda2114b3e1ab7fbU, 0xbd2b5704be101480U,
  0xbb0c2a403d934c08U, 0x3ccf35703bf9c740U, 0x3c1c7300bcc04360U, 0x3dc325da3db3a35eU,
  0xbd53a8383d07b0f8U, 0xbe2cc855bd27f8d8U, 0xbd7459ecbd6cc812U, 0x3e1b64ff3e1b88a9U,
  0x3dd11656be05e7c8U, 0xbe0968763e05b867U, 0xbd7d85503d95fc14U, 0xbcecdb78bdf5a4f4U,
  0xbe22263ebdc950d2U, 0x3dd35506bdfee2d9U, 0x3e08f78b3db2996eU, 0xbd820de0bd73ed0aU,
  0xbda71513be16fe0aU, 0x3ce59a40bd88d21aU, 0x3d367654bd831e03U, 0x3e191b3fbc2b02b0U,
  0x3bde0b003dda066eU, 0x3e057a8b3d7e3474U, 0xbdc0b325bdb570e1U, 0x3dbb43b63d883b2cU,
  0xbc369a503e27f1d9U, 0xbd920cc93d3de8e8U, 0x3e0219b5bbf45f00U, 0xbddd0e9e3e0c382dU,
  0x3eb948aa3ca5abb8U, 0x3ec23e73bddc471bU, 0x3e84ff823d321185U, 0x3ead39d63e7fa810U,
  0xbd269980bcff56bdU, 0xbe003f5abd95fbf3U, 0xbe85194abe0c317dU, 0x3e4378293d83dd92U,
  0xbcd04028398a1a7eU, 0xbe0957d63e152987U, 0xbe7b79113d774f7aU, 0x3e06dc81be10732dU,
  0xbe37fdb03c1a16c8U, 0xbda1aa42ba3647c4U, 0xbe5ca9983d3ed17fU, 0x3e42c7a6ba91e028U,
  0x3e5bd6a4bd731203U, 0x3d87cd723a8b7825U, 0x3ea0fd08be0e6d90U, 0x3e8671d6bd4053e1U,
  0xbea484cb3bdd95a7U, 0xbeacb2b13c21460bU, 0x3e3131d33d13cdc1U, 0x3d7606e6bdaa6955U,
  0x3de0d26ebec71015U, 0x3d2872e63d123f18U, 0xbc34b7cebe1d2beaU, 0xbe8bc5c53ebb3c3aU,
  0xbe5971f63c8fa36dU, 0x3eae9110bd4d96f6U, 0xbe31e3893d864988U, 0xbd971f943a6493ecU,
  0x3e2e03163ea00c34U, 0xbea4b0013c81ec23U, 0x3e4cde303caa7dbfU, 0x3e2745383a458f27U,
  0xbe3d2fe2bb348a4aU, 0x3e1834ee3d7154faU, 0x3e62bbc63b1f3aecU, 0x3e8ae89abbe1c967U,
  0xbdbfb80f3e151a45U, 0x3e17ada1bd9e9e13U, 0x3d9c5002b974ac5dU, 0x3d99ec633dc85702U,
  0xbe5b299e3e81db34U, 0xbe8a9fbf3bce0dfaU, 0x3b667775bbbac343U, 0xbd0e64ea3eb9de9bU,
  0xbe5b98b83c342be1U, 0x3de2f2adbab4235fU, 0x3e25b57e3c2af3daU, 0xbd8533b0beb83403U,
  0x3e157be6bd0f8b86U, 0xbd7f5f833eaebb93U, 0x3d3e4ec0bde40383U, 0x3e6aefe6bdc42809U,
  0x3deca0523e5e3383U, 0x3ed3c45b3e69f5e8U, 0xbd14a9f0bc2aaa5aU, 0x3e2a865bbd189e89U,
  0x3c402022bdac2d12U, 0x3e4cb9acbda56a28U, 0x3ead2d7c3d113f55U, 0xbcacaf433e37f53fU,
  0x3ed3d3baba881070U, 0x3e4e2af3bbee9e7cU, 0x3ea534bf3ef11032U, 0x3c4fc594bb9729d8U,
  0x3db18e3abd45ad6cU, 0x3ead9af93e2ca99aU, 0x3ed4d108bcc79e9bU, 0x3dd3a3873b6fe19dU,
  0x3de3c2123e492145U, 0x3c912580bd5e9c42U, 0x3dbf47fd3d7e8ddfU, 0xbcc9bf163d153e93U,
  0x3e06cddb3cd0a112U, 0x3e5b4406bd0b3222U, 0x3e0d83093e3b012bU, 0xbd00c8bb3e1f4684U,
  0x3ecb4db9bd56406dU, 0xbbee6ce8bc11ea04U, 0x3ee336143d3c1f9dU, 0x3e2bbb3abc9e545eU,
  0x3ecef7993d80e277U, 0x3ec7e0eebc311673U, 0x3e2095c1bc5c081cU, 0x3e50bb99bd39b1c9U,
  0x3e6d988bbdac9cbeU, 0x3dbc1c1e3d53af30U, 0x3d6f0fcd3ce10f32U, 0x3e8ff115bcc61476U,
  0xbd374d2abb4886b6U, 0x3d6bec38bdc2050fU, 0x3e2fb2103d90eef0U, 0x3ed508763e03a4beU,
  0x3e3acd1dbc5b95e9U, 0x3c9bf1873d70caeeU, 0x3edb3064bcc4689fU, 0xbcf230b3bc2e2ddeU,
  0xbda19d90bce89cedU, 0x3df2334abe12e921U, 0x3d35be0dbd3ce6e8U, 0x3d0d04aa3d3d1b1dU,
  0xbd8d7104bd46e3efU, 0x3a11fc00bd5163f0U, 0x3d530b9ebdbd0efaU, 0x3da3bc07bdb7be03U,
  0x3d9c6265bdad80a0U, 0xbc65a9a03c860c90U, 0xbcefaf94bbe740f0U, 0xbd987f4fbd249b16U,
  0x3da5be483d236b97U, 0x3ca21c483d81b3a6U, 0xbd251a75bd19242eU, 0xbc90dd92bd54cbd2U,
  0xbd80ddc53cc312a6U, 0xbdddbda8bd9ff920U, 0x3d37f0d4be0b6512U, 0xbd410e66bdb503b8U,
  0x3d6e28aebd5e801aU, 0x3c8324093dc15a84U, 0xbd9321efbd6e91c4U, 0xbd9201d0bd78c8bcU,
  0xbd2ef3ebbe1f3c0dU, 0x3c5ddee6bd7f5a9cU, 0x3d4ef922be2c2608U, 0x3caa8ffa3bb31a3eU,
  0x3e0c802bbe0e3bb2U, 0x3dda692e3d7391adU, 0x3db13c76bcf87ec3U, 0xbdeef5353c35b45cU,
  0xbe0e4308bda29084U, 0x3d1a4e0b3d297ec0U, 0x3d86d384bd056abcU, 0x3d88d5f4bc576349U,
  0x3e00310fbd5a9dabU, 0xbd2654703dabdb42U, 0xbdc850d5bd10e6afU, 0xbdb7f7413c668278U,
  0x3d18c44b3d45ac6fU, 0x3b812bdd3e61c70cU, 0xbca8f78abd9d0a77U, 0xbb789cccbde1b00fU,
  0xbca60eeebda0ef13U, 0x3c8322313d44843aU, 0x3d71e297bbd60cdaU, 0xbcb9b15cbd27c396U,
  0xbdb6c856bd276b02U, 0x3e41eb973ce54d23U, 0xbd4fbc5f3d9e0d4eU, 0x3ccc82803d92ee9fU,
  0x3caf95ebbd0e4712U, 0xbdd3b250bd63c552U, 0x3bebc8043c4c48abU, 0x3cb641d63d6be919U,
  0xbd52a6babd8f98beU, 0xbe1eacd33d1079feU, 0xbdc5d2b3bcc9aaf7U, 0x3d102a1a3dca0310U,
  0xbc0a96ca3e1bb7a6U, 0xbd1e0352bd9e90c5U, 0x3dbc6dab3dd41a94U, 0xbd21ecd23d742242U,
  0xbcdd1ad33d865cf3U, 0x3d9b2df2bc874aa4U, 0xbca001373dc76c38U, 0xbd285f5cbdc27da4U,
  0x3d0ef053ba2be2a8U, 0xbbda7e2f3e088e90U, 0x3dfbc31cbdd42e5bU, 0x3d02344e3c04d037U,
  0x3c66c34c3d30cd50U, 0xbd7849c9bcc31476U, 0xbda18e9a3dc991e6U, 0xbd8f2708bda6a663U,
  0xbd393f1f3a41d5e0U, 0x3d4f55d4bd398520U, 0xbd8a33833d80d2acU, 0x3d3587e7bc87267aU,
  0x3e312d5e3dd56faaU, 0xbcd183603dd46f66U, 0x3c4e25cb3cf78943U, 0xbcd3aa18bd97ad99U,
  0xbd695cca3e2e240eU, 0xbd81512a3d53bab7U, 0x3df2cf353b115627U, 0xbe192122bd9e2f49U,
  0x3cd8e0063d469f2aU, 0x3ce2e0e9bc92ef23U, 0xbd9141163e07db14U, 0x3d9a448d3d1571d3U,
  0x3d394d43bdede721U, 0x3ce398f5bdef8a86U, 0xbdf1073d3bfd867eU, 0xbd9941043d1eda1dU,
  0x3afb8698bdeea03bU, 0x3d209d3ebc6c5daeU, 0x3dc7e83c3d8b649dU, 0x3cab4e153d660b92U,
  0x3dbd40d0bdc774bcU, 0x3d9b96f43dd229d6U, 0xbc38ec80be04e92cU, 0xbd5ad1123b9d10c7U,
  0xbcc4b37c3d417dd2U, 0xbd7a5f9a3dcbb846U, 0xbd63ff5dbd023730U, 0xbd575cd03d5d2133U,
  0x3d784412bdab613aU, 0x3d3e8a52bd6836afU, 0x3e36efb13d9e1101U, 0x3d0630dc3e3afb02U,
  0x3dd9fa05bd744db6U, 0x3d0db12d3d9199b2U, 0xbd47fb153c7e4cdfU, 0xbdb49f74bd900c0cU,
  0xbd585d5fbc0d527cU, 0xbdb2b9de3df8cd88U, 0xbe0571afbd911929U, 0xbd1f087dbcdc4313U,
  0xbcf078793da2018aU, 0xbe2beeffbd1eb238U, 0xbce91afdbd5f8af8U, 0xbc40f046bd8cbde3U,
  0x3d8916d1bd894a9cU, 0x3d3b5bc93d7ff480U, 0xbd61f1943d38e2d0U, 0xbd852b783c70851fU,
  0xbdd3a6583dab0920U, 0xbc6fb67e3d408752U, 0xbdf6dc953cfe546cU, 0xbdcc1eadbd7a4894U,
  0xbd04b9c5bd1d91b1U, 0xbb9f1ae3bcb2f044U, 0x3cc4180a3dc3bef1U, 0xbc550dbbbdd01fbcU,
  0x3e08b54bbc7c708eU, 0x3d438f10bd96bcd6U, 0xbdb3711fbd6adf7dU, 0x3c84d7533d42ccdaU,
  0x3ba37d603c8d1910U, 0x3cd503ecbc1d191fU, 0xbce305ef3df06826U, 0xbdb1d8143c178b94U,
  0xbe37edf63c0070f8U, 0xbe09d8cebd8b16e5U, 0xbce1766e3d7967f7U, 0x3dd9842f395b7d80U,
  0x3b12dae03c53af80U, 0xbbe06d7cbcbee96eU, 0x3dde6648bd01bd36U, 0x3dc4ed2c3de04255U,
  0x3da463613d8ba5d4U, 0x3cb60ac03dce8feeU, 0xbdd6a44cbc9bf87fU, 0xbcfb02683d065759U,
  0xbd44061cbd320b92U, 0xbd32a20c3d88d08eU, 0xbd82f72cbd65f003U, 0xbc862fa83dc00ee6U,
  0x3d28d228be156745U, 0x3ceae5923c0f8ee2U, 0x3e074974bd18191bU, 0x3e270f55bdde8b4aU,
  0xbc35df7abd81cd33U, 0x3c906f7c3dcc8f6fU, 0x3dd76db1bda1c3cfU, 0x3d0c569d3dc29bd0U,
  0xbd15dfc1bda6dcb6U, 0xbd40fdb4bda6ef32U, 0x3d1d7a223ce6ea76U, 0x3d709b353dbd80b2U,
  0x3ae007a03db645afU, 0x3ce48eb43d1715c0U, 0xbc7c240abc29f070U, 0x3dde4dbdbd92bfe6U,
  0xbdaa4af0bd2fd339U, 0x3d0a58ebbdba0f3eU, 0x3c8cfb743d240ce7U, 0xbdc02dd93c682300U,
  0xbd8e1f953be6364cU, 0x3be0ccb0bd832bd4U, 0xbdad91f0bd5dddafU, 0xbd2e484c3e042b3cU,
  0x3c5697b4bce68352U, 0xbd2bda05bc6ced6cU, 0xbdb3a5663d9a8d69U, 0x3d881028bd9cac98U,
  0x3e5b9379bd0df503U, 0xbd78cfc4bc2b81b0U, 0xbd13b3cb3d865e48U, 0x3d29c3f03d210207U,
  0xbcec39033d93aa36U, 0x3dae98013c09efa6U, 0x3dda4788bca8a420U, 0x3da95b783d1b539bU,
  0x3dcf0242bcb2aa9fU, 0xbd54699e3de1a2caU, 0xbd9c6648bda86740U, 0xbbc7c00c3d60376cU,
  0x3c809cf8bd09d390U, 0x3c6ff7863d1fb602U, 0x3e03725a3e23c735U, 0xbcb7e574bd923746U,
  0xbd471460bca1cf65U, 0xbd2b2bd73c89915eU, 0x3b9c6280bd1aaaf4U, 0xbdb7e1e6bdbb126fU,
  0x3dd23f8e3d79d8a6U, 0x3ca01f95bd7b3820U, 0xbba5f5503d42f57eU, 0x3d8b91683d145065U,
  0xbd80cdc43ca131c2U, 0x3dd09fd7bda58580U, 0x3d5dad1fbc6d9834U, 0xbbb573b83cc3a92fU,
  0x3da4a3cdbcb5d8a8U, 0xbda925a73d87768cU, 0xbd5f7e133cce0376U, 0xbdcb413c3d254fceU,
  0xbdc35000bdd7f2c6U, 0xbe04cfd1bd17c9a9U, 0x3d598a66bd5b71feU, 0x3ddc31dd3d0db871U,
  0xbdef36963d30b13bU, 0x3dc138b3bc01695cU, 0xbe1f8c2abd9033acU, 0x3c7a2eb43adac0c0U,
  0x3cd0f96dbd8a3fe4U, 0xbde781c93d7be794U, 0x3d0a1948bdcafde0U, 0xbdd27b8b3d201746U,
  0xbd8c2b953e02742fU, 0x3da364853ca1075aU, 0x3dbc60df3d23388aU, 0xbe1e0a0e3ca6c7e7U,
  0x3b8b1f3c3c606edcU, 0x3e03637bbda2d877U, 0xbe3843cfbc9772e6U, 0x3d7875fb3ce938a4U,
  0x3db2b1043d15c4bdU, 0xbd61697c3d1446ccU, 0x3ca8996cbc80f6f8U, 0x3d649dc13c10ca52U,
  0xbdae35bebd4d50f5U, 0x3dc1f7023cacd7e6U, 0xbd1599c13dad5064U, 0x3d3481013cc69575U,
  0xba6a8d003be3ba16U, 0x3dfa1252bc89aa0bU, 0x3e0477963db034b4U, 0x3cddb9f53cfff787U,
  0xbd95033cbd41177bU, 0xbdd499febc9483a7U, 0xbc5595dd3e07d784U, 0x3d5bb3a03d72edd4U,
  0x3d8ca6bdbe257a04U, 0x3e4f6e90be03f632U, 0xbd64cf573d920708U, 0xbcab963a3cf43520U,
  0xbe0789aa3c5cfb56U, 0x3ca278d2bc9f9f4dU, 0xbdc4341fb990cac0U, 0xbc75dbe6bdb08460U,
  0x3c97e40fbe0620a8U, 0xbd46bc0f3d0fd360U, 0x3d75979fbd422346U, 0xbd863accbd07ee89U,
  0xbd182ca93cc3747dU, 0xbd7249743d79fe88U, 0xbc73404e3d813e49U, 0x3db9027a3c0d82d8U,
  0xbcaaff6dbd728af4U, 0xbdad531c3dd5eb28U, 0x3d7a8232be467646U, 0x3c0a5363bc881b0dU,
  0x3d6b8228bd45c0f9U, 0xbd4634cebd3f94b8U, 0xbd3985b7bc0333f6U, 0x3cc14316bd83705aU,
  0xbc33103a3d8ebc20U, 0x3d88109abc11f880U, 0x3d249e8ebc741124U, 0xbd0047213d819ea7U,
  0x3da9d8bf3d4ade0fU, 0x3d35db34be061322U, 0xbc90733ebd119bceU, 0x3cd8a8f13d873b13U,
  0x3ddb50dbbc86a8d8U, 0x3d527b323d6585c4U, 0x3d1429cbbe017012U, 0xbd5fb0f1bd375f49U,
  0xbdafaa4a3cb7e2b0U, 0x3de253733d212b54U, 0x3dbf509f3e06d7b2U, 0x3982fb803c985081U,
  0x3db27239bd3582a4U, 0x3dc0cebebdc46deaU, 0x3d169f2fbcd7db1dU, 0x3b131eacbc12c8b3U,
  0xbcdbd72e3ccf62c5U, 0x3a896a14bd833d7dU, 0xbdacb57cbd94fb05U, 0x3d35288fbd17daa5U,
  0x3d1f17dd3c89a6a3U, 0xbe2207cebdc9a553U, 0xbd351be03db450f6U, 0x3ca7f6c0bd021630U,
  0xbd929dca3d0e015eU, 0xba5139003e1918b3U, 0xbd5683523d355611U, 0x3b19382ebb38d538U,
  0xbcdf9a1c3c98e4d5U, 0x3d815a903e11b8a5U, 0xbd28baf8bd21d04aU, 0x3ddf130c3dab6311U,
  0x3dd2757c3d5aab3aU, 0x3cb8d6f43d206b72U, 0x3d3dbfe13d840528U, 0x3c3efece3d5d0635U,
  0xbdb7d88dbb283cf8U, 0xbbaff4fc3b70ecdbU, 0xbc9917603c684ba1U, 0x3ca509d73d384e40U,
  0x3d3dea3c3c83bda2U, 0x3d13a5e9bd881dc0U, 0x3d7ac6f83cb7ca30U, 0xbdbcd36f3e39a661U,
  0xbd1c9830bd0f84a0U, 0x3c897228bd8f8152U, 0x3e0c31883b7ea28cU, 0x3e0e8840bce2b659U,
  0x3dfaef4cbe34de28U, 0xbd6ba218bc50ec08U, 0xbdd4768dbad56c80U, 0x3b1dd7b83c0876e5U,
  0x3a3496a03cca0924U, 0x3df21c11bcfb5206U, 0x3d6aca81bcffa1d8U, 0xbc60d416bcb1635dU,
  0x3d447c57baa9ba20U, 0x3d8b58823c0b3048U, 0xbcd71427bce1d18aU, 0xbc8f1839ba08c7c0U,
  0xbc1b3d39bdaec728U, 0x3dc23402bd44caa5U, 0xbdbecd533db238ecU, 0x3b1619743e3c6476U,
  0x3d275d96bc4350ffU, 0x3e2d562dbdf36c0aU, 0x3d0520f9bd739e04U, 0xbd25fdc3bd8f900fU,
  0x3d9c77d23b691edbU, 0x3cf26c743e8dfb8dU, 0x3d46ea923b7cf7fcU, 0x39159080bd101864U,
  0x3c9eff9ebaa244f4U, 0x3e0f10203db4d8fcU, 0x3d8b89a63c56fcdeU, 0x3d88678cbc79af0cU,
  0x3da08097bd902a47U, 0x3c4b2b943db7551fU, 0x3d993fae3c822602U, 0x3d5140103d6c559cU,
  0xbc035ec9bbaf7894U, 0xbd14075cbd7524f7U, 0x3d4a02c83e65f538U, 0x3d035599bcf65cb2U,
  0xbca3f3fd3d3777b2U, 0x3d8861673cdb258aU, 0xbd78abb53c905ec0U, 0xbdc4e992bda56ae2U,
  0x3c8606c6bdb503b5U, 0x3d0ed07a3da1ac48U, 0x3b167f30bda10ba4U, 0x3d310a773ca35830U,
  0x3dfeb3b5bd9da1b4U, 0xbd110d0f3df7eaa0U, 0x3d52f0fe3ce44471U, 0x3dac5ebdbd012448U,
  0xbd7765983e15a47dU, 0xbdd2a0d7bda7e7f4U, 0x3b935d8c3da9560cU, 0x3d88ac293d850d80U,
  0xbd9ecbe93d1020a4U, 0xbd6ff10e3d363e30U, 0x3e27504dbdb3c32aU, 0xbc842029bd3fec90U,
  0x3d9782c43b03bf10U, 0xbcac4bd93d08ae0cU, 0xbc2e93e63d183434U, 0x3d0e221c3e1b1eabU,
  0x3cdeb0ba3d289792U, 0x3d4bb6b63d6becc4U, 0xbd49f104bd99b534U, 0xbbe50aaabc459a40U,
  0xbe18448c3db3cf92U, 0x3c122cc4bc6b453aU, 0x3b591df8bb751ed0U, 0xbdd6d6c2bd4e4d48U,
  0xbc09b1fe3d311c18U, 0xbe2b53f33cac6937U, 0x3b90d57b3c90a66bU, 0x3d889057bc058c59U,
  0xbcbd168abe0a3571U, 0x3d1a97273c020ff9U, 0x3dece8093d5b7ac1U, 0xbd281a42bdbf420cU,
  0x3d28cfe0bd0544f4U, 0xbdf626da3d82798dU, 0x3d67902cbd1549f5U, 0xbd6eae5cbcfa9807U,
  0x3a340fe8bdb7306bU, 0x3c94cc803e3de6b2U, 0x3d43161abd06a262U, 0xbd700231bdbc53daU,
  0xbdb9b184bd59d1c2U, 0x3db03692bc3430c8U, 0x3ce3c1cbbda030bfU, 0xbd1731a6bd594cdaU,
  0x3d2debfd3d85e22dU, 0xbbe37a2c3d8dd846U, 0x3da534cd3d2f417eU, 0x3d3af5a6be043f91U,
  0xbd8a20adbdca04b2U, 0x3db073c4bd1f65baU, 0x3c5d5385bc8ddb32U, 0xbc9f4e493d173079U,
  0xbd46d3a93d9c9e97U, 0xbbd377d73e042fa9U, 0xbda2d809bd11b0baU, 0x3db262483cd754fcU,
  0xbdd22c9a3d2da133U, 0x3d9737aabd28076aU, 0x3d27f6693b812a00U, 0xbb501dc03c4ea575U,
  0xbe313c333db8b035U, 0x3dc43cd23da143b8U, 0x3d2580d63dc6a9efU, 0x3dc0b019bdeeed88U,
  0x3d1f9e8f3c8a5bb8U, 0xbd2d27a7bdcfb432U, 0x3dce6f31bd8b1915U, 0x3d02cdac3e06c08fU,
  0xbba2a39e3c6c8053U, 0xbd7e268fbcdea6f8U, 0xbcd3dcce3a6eaa88U, 0x3ced725e3d0a856cU,
  0x3da746433c98c0dfU, 0x3d2b84f6bd462891U, 0xbdf6e6b5bd1176e9U, 0x3cf35ff83c5bcefaU,
  0xbd97d4e13cdea199U, 0xbb88c34dbbb89636U, 0xbdad5d5e3cfb76dfU, 0x3afbe128bc5151f6U,
  0xbcedb1bbbcf9ee70U, 0x3d5a780c3e07abb3U, 0xbdbe4624bdf84ddfU, 0x3dcdfb803daefd7dU,
  0xbe007286bde20ec4U, 0x3d5e573bbdaadd8dU, 0x3d32a2b23ac3fce0U, 0xbdfab2bb3d3fe064U,
  0x3d5c47e6bd7cc2dcU, 0x3d0467cc3d8f0b91U, 0xbcdca1f73d896aa5U, 0xbe261053bc8d2462U,
  0xbd7dcdc43cdd7d6dU, 0xbcb7162d3d493d00U, 0xbd147493bd81f853U, 0xbd8030d33ccec306U,
  0xbc592e7d3de7d0b2U, 0x3e05d0b4bd1fcd63U, 0x3d6013a8bd9d4db1U, 0xbdd9fef43e0d7cd1U,
  0xbd15a3f73d9b6c4fU, 0x3d514c213e66add5U, 0x3c0b436abcd5676cU, 0xbd34c843bd66cd25U,
  0x3d1b4081bd51c21cU, 0x3d20a2adbe3e1d9eU, 0xbd0e392a3d0139fcU, 0x3c8ea3af3d24bdfeU,
  0x3d56be1abcd8b9f2U, 0x3d8c7a943e2fcce8U, 0x3d91b028bd61e2c4U, 0x3dc03bd43c9f60faU,
  0xbd738d053d80b0deU, 0xbd35ed423dbbc79bU, 0xb9bb46743d68ca53U, 0x3ccb0dc03d4ff2e2U,
  0xbc61f69cbbd328a8U, 0x3d8fa648bd667d9cU, 0xba81b8503b2511a0U, 0x3cf353253c853c53U,
  0xbd0edf383e2f8710U, 0x3d3cde48bce020d0U, 0xbdf6be7dbda2141dU, 0x3b3443d0bd2c2632U,
  0xbcdbd9edbdc9042dU, 0x3d7d7dba3d4e7d88U, 0xbd5b6697bbe06ba1U, 0x3d0d861a3c75c272U,
  0xbd4570d6bdae89dcU, 0x3df712f73c8197f8U, 0x3c618f9a3d4b0f08U, 0x3b8666a2bd8eac37U,
  0x3da518383e0bf830U, 0xbd9b6db83aa05040U, 0xbd95b140b9c6db00U, 0x3cecfe643e1d8cb0U,
  0x3b5b148c3ce9d5cfU, 0xbd29453bbdbe21e6U, 0x3dcaf20ebd3f2de5U, 0x3b30d43cbdb62c74U,
  0xbd7be04ebdaf3b7dU, 0x3cdb4bb8bdd29fc4U, 0xbddd916ebd4fe254U, 0xbe375f733dbbce68U,
  0xbc5f80f53cae7b9eU, 0xbaa3be00bcb63108U, 0x3c8663783de622e8U, 0xbccbfb6b3b3a5220U,
  0x3db29e1ebd23adbcU, 0xbda2e2dcbd17b2e5U, 0x3db8f255bdfb7a71U, 0x3dc134fe3d037beaU,
  0xbddc4102be44054eU, 0xbd3091a03e02d418U, 0xbd8b1e08bd3850deU, 0x3ca63536bd9b9856U,
  0x3d3ac853bda80df4U, 0xbdd9a2f93dc082aaU, 0x3d11e52bbd004127U, 0x3df89de1bd6d1068U,
  0xbd5a4f2bbd50aee0U, 0x3da3928abcf53f67U, 0x3c546be9bd1d6260U, 0x3c394deabd93054aU,
  0x3d724710bd68493dU, 0xbd80e7acbd7526baU, 0xbb4273e43cc222a8U, 0xbde25410bdd49069U,
  0x3d4f75b83d22d9feU, 0x3bcfed323d79147fU, 0xbd360c4ebcac802eU, 0xbd72c596bc12d094U,
  0x3e1062633ae01998U, 0xbe20dfa63dcfd2ccU, 0xbb469d713d4dcaa9U, 0x3ca56e15bd3d4b64U,
  0x3d9faa9f3d82a6ecU, 0x3df23ba73d1a0362U, 0x3d9546483cabd7cbU, 0xbd1a86d0bd52dde5U,
  0x3daf7a7e3de56e76U, 0x3def31edbbb6b148U, 0xbd5f58203c8b24b1U, 0xbdab05c93b02dca2U,
  0x3de169debdc1f28eU, 0x3d5858803d1505deU, 0x3cd4dfde3d0c4dcfU, 0xbe0392cc3d5d62ebU,
  0x3db18784bc599ebdU, 0x3d91c489bd7bbf31U, 0x3d866553bd03243cU, 0x3d24617ebc2b05b3U,
  0x3e238767bc7dfce4U, 0x3cf8c4003d7f8d56U, 0x3c69acc13d92a3e8U, 0xbdc5923d3da30bc9U,
  0x3c93e9a3bd9d05fcU, 0x3dabf34ebb039bb6U, 0xbd99a5823d87f450U, 0xb877a17a3ded255aU,
  0xbd5a68cebcd0e0bdU, 0xbc3e42cb3e081a32U, 0x3cd20d823ceecb5dU, 0x3dcc076fbd8f7fecU,
  0x3cef10f83d950a63U, 0x3d827b58bd5116bcU, 0x3c93ebb13d76213aU, 0xbd0b7c7a3d2fee49U,
  0xbe006e8e3d1dcbb0U, 0x3de31294bca98d43U, 0x3d873f8f3de6d5eaU, 0x3d41caa83d14a5a0U,
  0xbdc62163bd03c10cU, 0xbcda99febc15f139U, 0xbb6870d8bdb6cdc6U, 0x3d460a14bcbba2c5U,
  0x3d25fd72bd83b79dU, 0x3dd2113abdbc9145U, 0x3d8284193d1cb116U, 0x3cb539b2bdecf1aaU,
  0x3d3b5d04bd935f44U, 0x3b200a903d36f32dU, 0xbd0bf0883cb31e30U, 0xbe0d73153dc1968bU,
  0x3bd71cdcbd4c8c6aU, 0x3da4c222bd48f6cbU, 0x3d3f88a43dbd921eU, 0xbddd2b3fbd911a3aU,
  0x3da9fea63d88931eU, 0xba86a0c8bcd151b7U, 0x3d9a75f33b7075a9U, 0xbdc45fa6bdc7f79dU,
  0x3da62992bbc40a6bU, 0xbd9bf6793d634ac4U, 0xbd319749bda775daU, 0xbd1ab7e2bba404c2U,
  0x3d7a17a03dc7b4ebU, 0xbdb137b23da61f02U, 0xbdd5168a3dda6daeU, 0x3ce49bdd3d7a6bf7U,
  0x3c8797b8bd635c64U, 0xbda93bdabd14e72cU, 0xb9d4a4803cfac8ccU, 0xbcd6ad303cb46db4U,
  0xbdf6e7fa3db5b4c4U, 0xbd9929b13c9413d8U, 0xbe1b6529bd8c7dffU, 0x3d005e533dcb0fecU,
  0x3d9ac5b0bdefbe61U, 0x3ced23d23c9d1c1bU, 0xbd410db2be0899beU, 0xbd3c754abc1da314U,
  0x3d96007d3de64e28U, 0x3d73702ebd79e5b4U, 0xbda6d647bcfe05d7U, 0x3c0e30003db0f95eU,
  0xbca0170bbd04629eU, 0xbd75e1123d9a670cU, 0x3b672a43bcd3b057U, 0x3c869ca03cbfdb4aU,
  0xbdd59259bd4c1367U, 0x3e033cd6be297f3bU, 0x3b8303d2bbca1d00U, 0x3adc51c03c6fd3b0U,
  0xbd3d23bf3c1161fcU, 0x3cc207cb3d446534U, 0xbd1237cf3e017a91U, 0xbd951202bd8e3000U,
  0xbe0769dcbd10c482U, 0xbc43ef503dac7a04U, 0x3a897540bdf0e3d2U, 0x3cacf3b6bd70d22cU,
  0xbabfe10c3da943e2U, 0x3d4ac3bcbe15c026U, 0xbd11289bbd70c12aU, 0xbd3a20033ccc574fU,
  0x3deccf9e3cd0fdf9U, 0xbd6eb254bcddf9eaU, 0x3d8c2624bd6c6ddaU, 0xbdec0c603d8322ccU,
  0xbe140490bd33790bU, 0xbd7d38403c9516b6U, 0x3dcc24453cad6f0aU, 0xbe1021ac3d575ed2U,
  0x3d9d041c3cf190e2U, 0x3d587b81bd6753bcU, 0x3d522f6cbdc02aadU, 0xbc6f2806bd3bce3cU,
  0x3ac44ee03ddc21a2U, 0x3e0ad0ebbd1c57c3U, 0xbd56d3debd827237U, 0x3dee80d73d855924U,
  0x3ae84700bdd1576cU, 0x3d99e26cbd6d7f7fU, 0xbc02064cbbc72efcU, 0x3cf7e896bd77dd86U,
  0x3c41cb253dcaeceaU, 0xbc4af3643d8ad1beU, 0xbd11fe59bdd72df9U, 0x3d38cd7a3d2547d4U,
  0xbd75ac963dd2f37bU, 0xbd653514bc501729U, 0xbccd42d83c73626aU, 0x3d5e0816bbd2815bU,
  0x3e546352bde815b4U, 0xbddd93363d3ae933U, 0xba542f803d3f343fU, 0xbe204f5b3c96ff95U,
  0xbda4fc60bd5b6fabU, 0x3dd107bd3d205ebfU, 0xbcb78aabbd2f2d1fU, 0x3c75d2503de3ad86U,
  0x3e0eb4403cc1b1eaU, 0x3d28a4a43d0d7540U, 0x3da52bc83b053d30U, 0x3dfa3ab63b66e470U,
  0xbdbf27143d1e9b11U, 0x3b323d0c3d47d774U, 0x3d3295d0bc3b6b06U, 0x3d41eb11bcb04207U,
  0xbe3b089f3c479376U, 0x3dcba9dabde93a1aU, 0x3de269123d901037U, 0x3d9998ee3da9a9f6U,
  0x3d8b810b3bd434e6U, 0xbdae9e04be28265bU, 0xbdc5bb6b3d4af607U, 0xbe30fa5e3bd426a0U,
  0xbd3e355ebcca7a0cU, 0xbcb04debbe2e654aU, 0xbce1cf7b3e13b660U, 0x3d1d37eabadf9f68U,
  0x3d13708ebd84e498U, 0x3c9112f2bdb0462eU, 0x3d8006fe3daf7100U, 0x3c3868f0bc14c8deU,
  0xbd5d9c36bda86bcbU, 0x3d08f5ecbd1563e2U, 0x3d6a1e9cbd766579U, 0x3d95594b3cafb484U,
  0x3d277af23d8ce216U, 0xbd23c283bcd3a776U, 0x3cccceccbd3a50a7U, 0xbdd9bd39bbbaeb9cU,
  0x3cc4b71bbdae03beU, 0x3d863a723d5192eeU, 0xbdee01f6bd56dbeaU, 0x3d9b52213d991abdU,
  0x3d3af7bc3db11eb8U, 0xbc955df0bd1626b1U, 0xbd0bd6a1bd4fc9dbU, 0x3bf3ab6d3d1b3d61U,
  0xbb75f32c3c353b0eU, 0xbd27d804bd18f05cU, 0x3bc374ce3d68493aU, 0xbdd7d79fbdf79d29U,
  0x3e06122ebd9eb428U, 0xbdd6e601bdbd08d0U, 0x3cf066c93daac4b6U, 0x3d3215fd3ddcbfe8U,
  0xbd3010b13d57e0c8U, 0x3bbed05c3d603418U, 0xbd6ad5303dda2fefU, 0xbd4b9ff53d128ddcU,
  0x3e01cbd73d2ff16aU, 0xbdae221bbd669a47U, 0x3bc1777e3cd86d3aU, 0xbdbc763cbe3110d5U,
  0xbd8893943c6c6c6cU, 0x3d9bfdf6bc7b22e7U, 0xbd1ca47cbdd9f971U, 0xbd426ea5bc06f9c4U,
  0x3d83a2aebc9bb158U, 0xbd5638963d5f5723U, 0x3c87f49d3ca696b7U, 0xbd6b4534bd62c6e5U,
  0x3dd342613d3cff5fU, 0xbc5c066ebcde35c2U, 0xbad95be0bdb001eeU, 0x3d1426383df3371cU,
  0xbd10f6b9bd0c0754U, 0x3c94381c3cf50bc8U, 0xbcb6b351bd012c96U, 0x3d8a1f393d61a515U,
  0xbcd726113d39959aU, 0xbdfc5f77bb0a92f8U, 0xbd74b7a13d9f8042U, 0x3b5295873cabffceU,
  0x3d77aeaf3e0c312fU, 0xbe414d0abd1f4bc6U, 0x3dee5b92be0e651fU, 0xbc13bdc5bd5d324aU,
  0xbce4d8cbbc265c06U, 0x3c1c60ffbd7c7088U, 0x3cebeb423d6cfba9U, 0x3d26aed0bc0d59acU,
  0xbdc9528dbd8c95b6U, 0x3d5e62823d7ecbb4U, 0x3d783ad9bd0b70b2U, 0xbe019b2dbd75f6bdU,
  0xbde4ea403d942d42U, 0xbc53f178be1df42eU, 0x3d169f59bc96d8caU, 0x3cd57a823c3b7a3cU,
  0xbda11a3abd77e1c4U, 0x3caab7f73d404620U, 0x3cc03f593a838590U, 0x3dbce3cfbce736cdU,
  0xbe45a4e83e17426dU, 0xbe01f60ebc978bf7U, 0xbc4e7788be06ca60U, 0x3c9903f4bc15be30U,
  0x3d86867a3cae31ecU, 0xbe0b9de1bcfa5c4fU, 0xba178f883d8fd62dU, 0x3d38bbb23cd51008U,
  0xbdee2ade3cb38c5eU, 0x3dd2489fbe20c70eU, 0xbb0bc4003c2cb1a9U, 0x3d9b2ed23de618c8U,
  0x3d9923ebbdcd8e11U, 0x3d169058bd793468U, 0x3df5c136bcde484cU, 0xbca92caebd8abc16U,
  0xbd403e503cac5aa8U, 0xbd42b915bd263381U, 0x3c632d733d16410eU, 0x3d9a12b23d9c910eU,
  0x3d959ce03c7d7073U, 0x3dad0d72be250b89U, 0x3e010a313e3e587aU, 0x3d8b623a3cf52d66U,
  0xbd87a8b9be048cfdU, 0x3dffa1bc3a8b8520U, 0xbdaab8743dcaafceU, 0xbc4badc2bd97a396U,
  0xbc421cd83bf23490U, 0x3d5821603b270000U, 0xbd1ebf623d85bac2U, 0x3c9d79d7bcbf9128U,
  0x3c6aa482bd9d1496U, 0x3d6081dcbb9362a8U, 0xbd8261143db1497eU, 0xbd8444cabd8772e8U,
  0x3ded97f6bde4a90cU, 0x3ca00bfbbda16ff5U, 0x3ce63242bc85a4caU, 0xbd9ee68b3da25a03U,
  0x3d33cac23dc14ac7U, 0xbd4a38853cb1f582U, 0xbd81edb5bd9972f0U, 0x3d9c6eaebd851b2eU,
  0xbe04f8c43d13c255U, 0x3d0c7d8bbd2a44e3U, 0x3c97428ebdc08e6cU, 0x3cd86fe43de4fd5eU,
  0xbde4fb60be1b5a9aU, 0x3d04934ebd110ebaU, 0x3b4b9f803dd4e48eU, 0xbdb4ee25be1ce068U,
  0x3bd59ae43c18f340U, 0xbdbba808bc8280b4U, 0xbd8450193d2b561bU, 0x3d9098803cc8a114U,
  0xbc3124f0bcec57ccU, 0x3c9c18403d03c141U, 0x3ccba49cbd0c6a2aU, 0xbe04fae0bcf70890U,
  0xbbb5a8b03cd8dc1fU, 0xbca4ba843d84d0cbU, 0xbe0277553da83a88U, 0xbd42f7743d41e1daU,
  0x3c0f0afcbcd209d0U, 0x3d8f4408bd59e868U, 0xbd4da4263cac8eb1U, 0x3c108b403ba92562U,
  0x3d1307ea3d579b0eU, 0xbdd25a363cbd84e1U, 0x3d0c754fbd0bb8f2U, 0x3d265016bd55a942U,
  0x3bd706df3c262aafU, 0xbda6d52d3cae28d3U, 0xbd2c7ead3d42b4a5U, 0x3ca83e663dd9763dU,
  0xbc93124fbd80a602U, 0x3c8fa2583dbf0798U, 0xbe249addbc97d76aU, 0xbd938ff83ddc7888U,
  0xbe2e23953c609102U, 0xbdcc56df3cbfeb8cU, 0xbe1a11b9bc43af4eU, 0x3d19f22c3de605b0U,
  0x3da94eec3c9e3252U, 0xbcee8d9339453e80U, 0xbd999a413d835205U, 0xbdf3e3f53d5124d7U,
  0x3b722d38be1c5675U, 0x3d0fbcdcbd1c0aa2U, 0x3db40b8a3e091e6bU, 0xbdc2fd97bd7c2846U,
  0xbc0d64c9bcb5e8b4U, 0xbdfdb211bbe49edaU, 0xbc0d31d0bc800665U, 0xbd8ea6ff3e213aa9U,
  0xbe1c2c863cde804dU, 0x3e00ff463d2ac4d6U, 0xbd709d6a3d14ba34U, 0xbd0788c23d931ca1U,
  0xbb6a38e03db5d53aU, 0xbd904c13bb339e98U, 0x3dc14b8f3bab1830U, 0xbd3da7edbd254f97U,
  0xbcea6bc83cf56360U, 0x3d5164ca3d9fea35U, 0x3dfc989b3bd14bf8U, 0xbdc7c111bd65f4eaU,
  0xbcea85a13d38faf3U, 0xbe163bee3d7086e8U, 0x3d5fb8c0bb628960U, 0x3dbe1f3bbd8ba811U,
  0xbce3014cbd2979d1U, 0x3c6d02073d35d3f4U, 0xbd83812a3ce32898U, 0xbdc8d5e3bd4f9adaU,
  0xbdefead63d2cc3ebU, 0xbd2b5afe3dc31af5U, 0xbd5a657b3cc16a6aU, 0x3d1f25683d951e02U,
  0x3d9ed18e3d8bc3abU, 0x3d859ac4bc814416U, 0xbdab7b36bd66d70cU, 0xbd7cdfa6be329423U,
  0xbccb6a2dbd3a164eU, 0x3e1062893d81381aU, 0x3e59315dbd8f044fU, 0xbd66012cbd2474faU,
  0xbdf8cfd2bda27b0fU, 0xbcf360d2bc41b1f4U, 0x3b85007c3d0eba1cU, 0xbc99fca03cbc8050U,
  0xbd3655203c5bb286U, 0xbe07e5f03cb6ddf6U, 0x3da0af7bbd34a12cU, 0x3c6c3498bd0e26bfU,
  0x3c802aa0bdbe70c8U, 0x3d6757fcbd2282f6U, 0x3d6eb9d0bda0a126U, 0xbdb64c02bd13243eU,
  0xbcdcbd503dd008dfU, 0x3d419a7abcc76540U, 0xbd07afcbbdb2f9cfU, 0xbd9a0e033dbe115aU,
  0x3cb94b66bd26b7beU, 0xbce415833e299c78U, 0xbc1a9652bbff8c92U, 0xbd591a8ebc0d27cbU,
  0x3d4648803c974444U, 0x3ddf1850bd90b2bdU, 0x3c9e3b833cdce44cU, 0xbdc56a54bc08ecedU,
  0x3b138c00bc17e4d0U, 0xbd1ba4b8bd8af3b6U, 0xbcba804ebe12eb09U, 0xbc752b1cbd614ce4U,
  0x3db361df3d545155U, 0xbd8b363abe1cd90eU, 0xbd8ac9513bf7fa44U, 0x3cbaa3d2be2250d6U,
  0xbcb15acabd818a70U, 0xbe072fdd3dc5875cU, 0x3c4af9e6bd875433U, 0x3dcb79df3d76e18aU,
  0xbcb051983cdb17e8U, 0xbc09afb43d7f7cbbU, 0xbc9ea0723bdcd5ecU, 0x3d5cbb3a3d2db6ddU,
  0x3d48ba1fbc8f38c2U, 0x3d9f820b3dd53861U, 0x3dbdfdb7bcc517c7U, 0xbd8466c8bdc8899dU,
  0x3cfec2fa3d7c9ef1U, 0x3d39d4bbbbb1aad8U, 0x3c4eefe03d20ad99U, 0x3c9fb8ba3dc4993eU,
  0x3d7c17f3be28ddf5U, 0xbdce1e3abe226999U, 0xbbe8d7903daf4663U, 0x3ce94600bd24f196U,
  0xbdacd5483cbcca1aU, 0x3dde6292bd4c68a0U, 0xbd60c0903cc52626U, 0x3cecacb13d396443U,
  0x3d7340343dd126d6U, 0xbdc31fc53be34178U, 0x3d3c790ebd14935bU, 0xbd4a3f10bc83f3e0U,
  0xbd1ffdb63de06416U, 0x3c1ae408bde04eccU, 0x3d415becbe0c302bU, 0x3dffbc4bbdb9f04eU,
  0xbd7629413d2e4636U, 0x3dd877aabd5b991fU, 0x3baf4f67bdcdcb2eU, 0xbd50ccf03a2b3a80U,
  0x3d2cb260bd0d5885U, 0x3c98b946bddaf8e3U, 0xbd41be503dfd8506U, 0xbccb0e8abd882aa1U,
  0xbd8cee21bd025df0U, 0xbd222f4bbdaf899aU, 0xbdc3c520bb8d761bU, 0xbdece342bd928e54U,
  0x3bfceaa83d795691U, 0xbdb9d1d1b8616a80U, 0xbd0046b0bdd87b54U, 0x3dc182c8bbb16d80U,
  0xbd40be6b3dc1caa7U, 0xbca8d975babddbf0U, 0xbd45c7e43bc6d44cU, 0x3d3d3f493d779058U,
  0xbcd6503cbcaf406bU, 0x3d62d2d03d014660U, 0x3de8d494bc27a082U, 0xbd63c8c53d962173U,
  0xbe14ec893d82b27fU, 0x3ddb57163dfd020aU, 0x3d546fac3de3c2f7U, 0xbda384b83dbcd5f6U,
  0x3b53c418bcba90f6U, 0xbcf30e113d508ee0U, 0x3d83bc1d3d4e5c6aU, 0xbe1d69283d9fb6e4U,
  0xbb20535c3d8b6d52U, 0x3db19902bdd9fd17U, 0xbceb02aabd59f62eU, 0xbc1842e2bc6e0ec8U,
  0xbd8533a53dce1c39U, 0xbcdf54c13cbaeb6cU, 0xbdc9b274bd0a7e75U, 0xbcb7b17dbcb121b7U,
  0x3d11c456bd7b2808U, 0xbca8c7ed3cfb3212U, 0x3dc15ea3bdec1b5aU, 0xbd835adbbd4a681aU,
  0x3cf78fcebdb3e215U, 0x3d145cb03d9d4d47U, 0xbc5d53b03d94922cU, 0x3b8fd4b0bd5b6b77U,
  0xbcabbe543c3603bcU, 0x3c1181d43c42fee6U, 0x3df7c3973dda88d4U, 0xbd2976613c82de02U,
  0xbccbb0de3dd2e0a7U, 0x3d1dccc0bc48adecU, 0x3d129aa0bc146596U, 0xbd1eb51fbd9d1749U,
  0xbd8d12193d8f5ba9U, 0x3da69dc23c2dade0U, 0x3d7fe31b3cb09aafU, 0x3dfab86ebe3b1ac0U,
  0xbdcf89133ca03fa6U, 0xbc8e2d3abd2606eaU, 0xbdbb8944bd479d98U, 0xbcde8a78bb8c2b2fU,
  0xbc15f6bd3d08e034U, 0x3d8afa923dc82a75U, 0x3d5a3220bc676990U, 0xbc38b386bda50012U,
  0xbcd44350bcbcc988U, 0x3d1d16333d8fde95U, 0xbc64f0be3bc37356U, 0xbc92c562bc5a9adeU,
  0x3e059432bd65b5e9U, 0x3c8ef47e3d349536U, 0xbdb182cf3bfabe8dU, 0x3d9314cd3d362ee6U,
  0x3ba8f7e23c51ff9cU, 0x3ddf586ebccc3528U, 0xbcbe5219bd8b097dU, 0xbd106bbc3d99f952U,
  0xba9020643d860bf1U, 0x3c17b0be3c36ec66U, 0xbdc2f3e53dccb56aU, 0x3dc341e23e338649U,
  0xbc8e729ebc2da866U, 0xbd5faeb8bcee247eU, 0x3d26a2acbde3fcf4U, 0xbd40d8623d9b76feU,
  0x3d882046bcd687adU, 0xbd44556eba8931c0U, 0x3cf8db0a3d8f45b0U, 0x3d7d40da3c3269a5U,
  0xbd3f94e23d80bac1U, 0xbe0d2782bd3f06a5U, 0xbd9534aebdea2087U, 0xbd4aa5cb3bfcaf00U,
  0x3c9e6e84be109df1U, 0xbdb7cabbbd781b20U, 0xbcc17dc23e2ab472U, 0xbcc1a72e3dbe0ddbU,
  0xbd91524b3d9f9975U, 0xbce974bdbd5b7fe9U, 0x3d0193c1bce020caU, 0xbddfca663d0b8370U,
  0xbd525bd6bd4d37dcU, 0x3bae0970bd031c33U, 0xbdbed560bd55c860U, 0x3ca02c193c0cdceeU,
  0x3d332f2cbda929faU, 0xbd804f48bdbe9ab4U, 0x3e1c9847bc71bafdU, 0x3e1c4bda3df8e8cbU,
  0x3d7d5cfb3d7bbe9cU, 0x3cd80ba0bd8d7f37U, 0xbd1b4f14bd8b1f3bU, 0xbc4a50243ddfd1f1U,
  0xbced8761bd26e461U, 0x3cca4b92bda10046U, 0xbcf8bc583dcf4825U, 0x3c4495c0bd0fdbedU,
  0xbcdaf524bd903764U, 0x3c7503303c53b52eU, 0x3db2a57c3d64eba0U, 0x3d7d16e03da5697dU,
  0x3cfea6f73e26fa1eU, 0x3d21b6adbd59a84bU, 0x3c6a29f93c6e7da9U, 0xbc742ca03b6168a0U,
  0x3e0a8c0d3e09f667U, 0x3ccec0643cae5110U, 0x3e2e9c2fbd337e33U, 0xbe296c87bdbf542bU,
  0xbd7aee583d814c50U, 0x3d6d5d723dd38570U, 0xbd23e02f3d3890beU, 0x3dc27a103c9fb051U,
  0xbba8f824bca95450U, 0x3d63118a3dc56764U, 0x3d01719fbd01b71eU, 0xbd710ca63bb5c6f5U,
  0xbe4b97dfbaf75cb8U, 0xbd25322cbd780ac9U, 0xbd021f60bc725d2cU, 0x3ca1f3043c6201f8U,
  0x3d099729bd0b1667U, 0x3d97b8a6bccfabd0U, 0xbd06f0703dc325a1U, 0x3dd6fc893ceef144U,
  0xbdc37ba2bc67f6a8U, 0x3de733103e0eb522U, 0x3d0cda803dae0ea2U, 0xbcc69b18bc79153dU,
  0x3af69da8bdbd3a37U, 0xbdbd3be3bd1c1e5fU, 0x3dd20f9c3c525ebcU, 0xbdcd4ff63b04c566U,
  0x3d70e9203e018bf8U, 0x3e0f73143ce6e2d3U, 0x3ca2cdb5bda198e8U, 0x3b05f852bcd52c41U,
  0x3e1381ca3c61d36cU, 0xbdb46b02bde740feU, 0xbc7784ac3e2ef639U, 0xbd325418bc4b23cdU,
  0x3de165a3bccbbcc2U, 0xbda3e603bd368278U, 0xbd3733b03cdcc4ccU, 0xbd611f4f3d3b69b6U,
  0x3d9441a0bd0b484eU, 0x3d5866f9bd9fe4c1U, 0x3e1f8d2c3e352613U, 0xbc70c93abd5cf933U,
  0x3dbf3ecabd9331d8U, 0x3d36e450bd87a6daU, 0x3d9151c33b11a4b8U, 0x3d33b2243d1a03ddU,
  0xbd8aa6bdbd23eb37U, 0xbd6954bcbd2f8a9cU, 0x3c0ab6dabd8e07daU, 0x3d8985ebbd44b6c6U,
  0xbde25858bd8b3ddaU, 0xbcbac0d2bcd26670U, 0xbd9501ee3c7d7325U, 0xbcfc661dbe0732a5U,
  0xbd23c64ebd9f363fU, 0x3cac014ebd370542U, 0xbc7360503c28a7a0U, 0x3c9e98763db732bcU,
  0xbdc41ff13d992db6U, 0x3d9468e0bde950faU, 0x3da0fa56bd98e045U, 0x3d1463ca3de7096bU,
  0x3de0be4f3d000359U, 0x3d9938b53dba6270U, 0xbe0db1b4bd1a74d1U, 0xbb92a0f43d222206U,
  0xbe368b16badeba98U, 0x39b0cdb03d67da3eU, 0x3d95b4c53c4d5804U, 0xbd9d50b43dc4fd7fU,
  0xbda7321fbc9978b2U, 0xbc721a1cbe00f9aaU, 0x3d8127bbbd604b68U, 0xbd8141ebbd33403eU,
  0xbd1cc5403e0efae1U, 0xbd80c51e3bd7461cU, 0xbd8ba34d3cff3710U, 0xbc937ad8bc33b0acU,
  0x3d8c448ebd073ab8U, 0xbd401013bd7655afU, 0x3d8a50023d9b5fc9U, 0x3e1e47fabd6816a1U,
  0xbd77dbcdbccd4a4bU, 0xbd2c6cfdbbf0f460U, 0xbccbdf3ebdc5e1cdU, 0x3c9d1080bd00d01aU,
  0xbd2f7fe03daef774U, 0xbd27a736be124d66U, 0x3d88889e3c5c3f82U, 0xbe21ffa7bde8d972U,
  0xbd4b58b83c74b3ceU, 0x3dc5d9d8bca00188U, 0x3d42f8743d3f295bU, 0x3b9f314c3ccd5f08U,
  0xbd85e34abdace41cU, 0x3c818321bd2dd5f0U, 0xbc9e5e48bc4ffe34U, 0xbd0f2727bd766f7fU,
  0x3c566c9bbd2bc80bU, 0xbde82dc0bd8ea7e6U, 0xbc073860bda1835dU, 0x3d0708f73d812da4U,
  0xbbaf10c0bda7f3f2U, 0xbd06b5fd3d85c8b6U, 0xbe4417c5bd030272U, 0xbc0cdc7c3de949baU,
  0x3df6376a3c811912U, 0xbd88fe843ccab954U, 0xbd4f7aec3de91e58U, 0x3e1baddebd62f989U,
  0x3d43ef63bcf5d15cU, 0x3ded2e643cdb73c4U, 0x3d9643253d6fdc86U, 0xbce436f8bd85645dU,
  0xbcb0e94c3d289fd2U, 0x3d8498db3d956eb8U, 0x3b80a20abc9e9b49U, 0xbd9c7e7c3d4e6ee5U,
  0x3c14237c3e2fd238U, 0xbd83d199bdaff9f2U, 0xbdbf23e33d9be2cdU, 0x3c9207263d6cc9d9U,
  0xbdfe53513d712856U, 0x3dd806943e2cd79bU, 0xbd64cbf43d05fcc3U, 0x3c743cb13c5b7e12U,
  0x3cd10d06bd87c20bU, 0xbd3085223dcf10b3U, 0x3c6adbf4be0106e2U, 0x3da69133bbd18914U,
  0x3c9c7a54bcd05976U, 0x3da6eee13d8b81a1U, 0xbd3ba0cb3ded5dd2U, 0x3db9f800bc297e58U,
  0x3c9ceca33d9fd0abU, 0xbdc6b3393cc1d122U, 0x3c03d0c8bbf3c7c8U, 0xbd9a7cf83c3d9d08U,
  0x3cc842dabc92b7eaU, 0xbda0a5d2bce26d11U, 0xbd2ab67cbe034f6eU, 0xbdb7c5f03cb79f98U,
  0x3dcaf996bde587e2U, 0x3d2e5e40bd251c48U, 0x3d82c6f2bdfd855eU, 0xbd4094773ba65fc8U,
  0xbd8e3b603c888dcaU, 0xbe15d4e63df96215U, 0xbd714dce3babd276U, 0x3da68bafbda502b6U,
  0xbd63187ebdb7ff2bU, 0x3bb8feb03d320237U, 0x3c6dab443d9ebfbeU, 0xbd143cc9bce301daU,
  0x3c86a0683d1dfd82U, 0x3d3d209cbd730c6eU, 0xbc4f14493bbd8b28U, 0xbd58778bbe061eecU,
  0x3d70269c3d1df216U, 0xbd1e8202bd3d7658U, 0xbce2e5213ce66a07U, 0x3df22af5bd899684U,
  0x3d0bd02cbd8ec885U, 0xbd8eb3a9bd67ca50U, 0xbd55d0d8bcb89109U, 0x3b79e928be884e13U,
  0x3c4f0f543c9aeaf4U, 0x3d291da93cd16edaU, 0xbb4983503d7a37a8U, 0x3e0099c73d43f21aU,
  0xbddfe6c03d17c71dU, 0x3d68260b3d358d85U, 0xbd1876fbbc9fbbe8U, 0xbe0aac733d1421f6U,
  0xbd512208bce8e8e1U, 0xbd5398b8bc345138U, 0x3cb2f29bbc7e1394U, 0xbdcd86253e0cdb33U,
  0x3df3352b3cd0fb95U, 0x3c9a1c66bdf79660U, 0xbd84eca4bc8e5512U, 0x3e127febbd5e737bU,
  0xbdace2a3bd22b4c2U, 0xbd80db34bd11863cU, 0xbb8e5c2ebe136ee3U, 0xbd380ba6bcc4d192U,
  0x3d336acdbd491e9aU, 0xbc32a3b43d0cfaf5U, 0xbd7145cabd9bee2aU, 0x3dd66825bc242b88U,
  0xbc8c68acbd7b0908U, 0xbb45c8a03bc151e8U, 0xbd52fdc23dd8792eU, 0xb9a0dbe03d7dc57eU,
  0xbcd6e31cbe261e14U, 0x3d98ecabbd8a2363U, 0x3cab7cb5bd84bb9dU, 0x3da79c8b3bb04872U,
  0x3df8bfabbd299611U, 0x3d7e94ef3d9e4990U, 0xbcea7f483da08fa6U, 0x3c0ebe213dbf7618U,
  0xbb8903f23d369eccU, 0x3db540a2bd447673U, 0xbe0c734e3d621a78U, 0x3d5ac5eebd12eef7U,
  0x3d5746f93d917ff0U, 0xbc60e4f83b7f1273U, 0x3df0fdae3d393a7bU, 0x3e095e22bddb617aU,
  0x3dc0a4ebbcb0f0f8U, 0xbcad80ce3db40f44U, 0xbdcc2a8839384300U, 0xbd81ceb2bd820905U,
  0x3c4f2a2ebd6f2c74U, 0x3d9ff6ca3d21494aU, 0xbdbe7fefbaa4d240U, 0x3da893623d85f526U,
  0xbe349d75bcd03578U, 0xbd848f11bd992589U, 0x3a5c83203d7c5840U, 0x3dc6f52b3e046946U,
  0x3d30331cbd0be2faU, 0xbd5ef518be0ff806U, 0x3d4792323d712a80U, 0x3b9cadbc3d6f05a2U,
  0x3c83547e3d144aa6U, 0x3d1416b3be49989aU, 0xbdaf9b05bd3abfe8U, 0xbcba3a543dd11397U,
  0xbd3ac659bd294760U, 0xbd8a956abd20b0a4U, 0xbdd8833d3d2f6d96U, 0x3c5207923d36d7a0U,
  0x3de21563bd026cb0U, 0xbc7e1f363d9c2aaaU, 0xbde75c863cf7d4c3U, 0xbcc738f83d8e970fU,
  0xbd8c81c53e42b27cU, 0x3cfa7204bc579d22U, 0x3d31733a3ca085ffU, 0x3d77d2f23ded9da8U,
  0xbd38e2633ddd4cefU, 0xbd68248c3c5f89f6U, 0x3e0285dc3d80619cU, 0x3caeb9ed3d6ee5c6U,
  0x3b93da413d20168fU, 0x3e09d921bc60079eU, 0x3d07df313d07b0a0U, 0x3dcc3bf73d869fb8U,
  0x3d3910553d505874U, 0xbdd7af263d26a96dU, 0x3df08b4ebe087b99U, 0x3d6760833e1f4d1fU,
  0x3cd34b933ca01ffcU, 0xbdd9d616bd81c998U, 0x3d97da7c3cc26cceU, 0xbc87f0ebbcda58bbU,
  0xbd427db2bcff3256U, 0xbca80904bbffc45cU, 0xbd48ee68bd24d168U, 0xbdb379dcbcaf4132U,
  0xbd9cbe0dbdb391fdU, 0x3e153aa53d2b6be1U, 0xbcb5bf443c78e202U, 0xbcc90cf0bd1c4e74U,
  0x3c60d47e3c64ba1cU, 0xbd7f8a6d3df6442aU, 0x3d09c483bcd2cd7cU, 0x3d895794bd073dbcU,
  0x3d71bee13de579aeU, 0x3da20a94bdafb1f7U, 0x3e1f9b6c3d42f2e0U, 0x3cef09de3d97efabU,
  0x3accde50bdbb2a42U, 0xbaf30de0bd40ee00U, 0x3d4790403cc1ec08U, 0x3d35f0953d85287bU,
  0xbb895c96bc2cdcb8U, 0xbdb066433d8dd7fcU, 0xbdbb1e103cc14806U, 0xbc9fb82cbd3ae1aaU,
  0xbcc0fa7e3d8771f2U, 0xbdce6e813bff6685U, 0x3cb8b65bbc33ac6aU, 0x3c7010e6bd24a74aU,
  0xbd8297eabdefb790U, 0x3e0daf52bcaa04beU, 0x3d6b290abd326741U, 0xbde68e2ebdafaf2eU,
  0x3c444c783c2e9838U, 0x3d872677bbba5608U, 0x3dd240c23c42b298U, 0xbda91d30bd87474cU,
  0x3dabc07a3ca7c3c8U, 0x3e0d1ceebc406915U, 0xbd445a943cd24010U, 0x39769e803d0b8ec2U,
  0x3d71eed2bd7f04a4U, 0x3cc78a0abc872502U, 0x3db42946be16bd06U, 0x3ddefce1bdce1d74U,
  0x3a26b6e0bd8d7e2dU, 0x3e36ab503cc1a866U, 0xbd177d4cbdc43702U, 0x3d905aaebb962301U,
  0xbd63550bbcfa144eU, 0xbd545c743da3b8b1U, 0x3cd82181bc859921U, 0x3c48ced8bc31ea38U,
  0xbbad7d883d6aa146U, 0xbda06e6cbd379f99U, 0xbe08d8bfbe188f4cU, 0xbc43ae183e0c445aU,
  0xbc880ef23d4bde2cU, 0xbd9248de3dec3a2bU, 0xbc9164263c76ac78U, 0x3e2427793d704a02U,
  0xbd2c830c3d610ad2U, 0x3d1daa06bdf8d1d0U, 0x3ce7c2bebc8d206dU, 0x3e0913a9bcc15607U,
  0x3cf3694a3d78c4e0U, 0xbd64f4203d2c8af1U, 0xbda14594bcf49b54U, 0xbd1c0a693d54bc4cU,
  0x3d5c5e433d893f6fU, 0xbda4b36ebba2fd2cU, 0xbd53e756bd4e75a2U, 0xbd9c0b0c3c9f9774U,
  0x3df29ad23d115558U, 0x3c9e90a63cec3a7cU, 0x3dd1e6d73cbce9c0U, 0xbe16f724bca0be6fU,
  0xbc6af6ee3d21f7deU, 0xbdf4d8a8bcd7d47aU, 0xbd953903bd9c0756U, 0x3d2dbb2abd987026U,
  0xbd5448b23d9e2338U, 0xbd859648bce49a8eU, 0x3d7fe4f7bdeed9bdU, 0xbdd59aba3d81d930U,
  0xbc60400a3ca4bb81U, 0x3de564713d37e668U, 0x3cd3fc86bdd3b213U, 0x3cc23d263c991128U,
  0xbcde8cd63d1c3be9U, 0xbd4c0cd43d1920f6U, 0x3d11b4d7bd2071ccU, 0x3d9612e83d2019d9U,
  0x3dfbd641bc321c26U, 0xbd89c90b3dd00841U, 0x3d648ea0be025a61U, 0x3ca3a7d9bbcfbbd8U,
  0x3d81107e3c011758U, 0xbcb50c1dbcf9ca40U, 0x3d3148fa3dafef8aU, 0x3d99f810bcd5e86aU,
  0x3cb77e1ebc98bd40U, 0x3da4b7f33db392f0U, 0xbca2bcb8bd732160U, 0x3d6fef2bbd60ff00U,
  0x3d7c6ec63c9b8d48U, 0x3d8529843c0ee2c0U, 0xbdbd1531ba71a268U, 0xbb085808bdbbce0dU,
  0xbd0e0c1f3ce0240cU, 0x3d9485073d7db50aU, 0x3d4bba423d3288a1U, 0xbd8dd181bc9111a6U,
  0xbdef8b4d3c3398a8U, 0xbb1528173d9fb377U, 0xbc5e3952be01f808U, 0x3e01161abd70bca0U,
  0xbd440de13d77033fU, 0xbc5ce5c43d0d6796U, 0xbd37ff083cb64becU, 0xbcf41c4b3cd37354U,
  0xbc0bc386bafb0760U, 0xbd35df39bcebb5e2U, 0x3cf10f4c3dec1977U, 0x3d9b7290bdcaca28U,
  0x3de52af2bdba4f45U, 0xbc90818e3c697088U, 0x3d81aaf33d118a96U, 0x3dabf5593969c180U,
  0xbccca5ecbdc49ea5U, 0x3deb125e3da1533bU, 0xbdb16f0cbcd612a4U, 0x3da5834a3d32db4bU,
  0xbcb1b57ebda46671U, 0xbbdd47b83dd2f2bcU, 0x3deeb5eebc8650c5U, 0xbd08c495bd182598U,
  0x3d4061c83ded9abfU, 0xbcd2fb683c456966U, 0xbd13595ebd3ee81dU, 0xbcb78adb3d8a5b5eU,
  0xbc3d86aebe04dd82U, 0xbae18bf0bddf0c77U, 0x3c4190c03e18ec56U, 0xb82f2030be04df41U,
  0xbbf3a2583cb28f48U, 0x3bab4cf0381a1200U, 0xbccc944fbd84bc8cU, 0xbc802e923cc16199U,
  0xbdce63dc3d0699f2U, 0x3d1919a6bcb06b9aU, 0xbd2fd5043c4c5228U, 0x3ddcfd003d6a3fa7U,
  0x3c32e86cbb374fe8U, 0xbd8a8da53d92dcf0U, 0xbd0e31f23daf9464U, 0xbde815e9bc6b62a8U,
  0xbd5b40cbbdfa15b8U, 0x3d86bc68bd57f733U, 0x3cb9df9a3b1dcf00U, 0xbbf51f60bd050786U,
  0xbdc1a3adbbc3b086U, 0xbca373343bdfb2faU, 0x3cb45103bdfff61eU, 0xbd277c8e3dc52a59U,
  0x3da03a193ddf7d64U, 0x3d65339e3da42116U, 0x3db331ccbd4ad488U, 0x3cb1433c3ca95066U,
  0xbdced9e8bd253417U, 0xbd9e1ed23c303407U, 0x3dc297153d9e2166U, 0xbd28bbdd3c5095f0U,
  0x3ddd6570bd33d054U, 0xbc5ae6b4bc585a67U, 0x3dbcb9083da555a6U, 0x3d1a7b3abca5bd15U,
  0x3c87d2d63cd82e62U, 0x3d8415833d0f3b0eU, 0x3d9dc56c3e080824U, 0xbdba0483bd89111aU,
  0xbc9effa33cdf501eU, 0xbdb8c3f03e2cfba0U, 0x3d370dcd3b9825e0U, 0xbdd5afd43d7e5673U,
  0x3d98ccfebc648158U, 0x3d7d9f0b3da9918cU, 0x3ca9ad0dbe332dd2U, 0x3d11de7b3c28cf23U,
  0xbdac230d39028d76U, 0x3bb7bc823d14a6e1U, 0x3d30b14c3a9fa248U, 0xbd92e8943d3ffa95U,
  0xbcb6c8003d06719dU, 0xbd2d51a6bcf5bfc8U, 0x3c95c7463d30caacU, 0xbcd3aae23dbf34a4U,
  0x3d51aa66bb377870U, 0x3dec2026bc795b0aU, 0xbd1604023d5eca37U, 0xbd9e96d2bd8e6b9bU,
  0xbe3359f2bd114226U, 0xbb7e1a74bc7b977cU, 0x3cc7eeedbd6531b4U, 0xbdc8837fbe64c023U,
  0xbdde05403de43afaU, 0x3d1d624abd35a6c9U, 0x3e44457bbc9bd8dcU, 0x3c88152dbd314b92U,
  0xbcd60dd7bd74c8f3U, 0x3d94a8e4bc8cb4a8U, 0x3d6faae43d71ba98U, 0x3bce2d14bdc0945cU,
  0xbe3c75153d50d20cU, 0x3dc2e1b63c48bd11U, 0xbdc244a8bbe81618U, 0x3d484ada3cf001ecU,
  0x3cf5add73b2809a0U, 0x3d7a98a8bc5bafddU, 0x3cc1d456bd6a023eU, 0xbd70515f3d7d9fd8U,
  0x3de2e772bbec5030U, 0xbdd0650d3dea6fb2U, 0x3c86a3f93b32a934U, 0x3d5232733d6b8aa2U,
  0xbd7609e13dd2d161U, 0xbd27515a3da12320U, 0x3db3b94f3c0c0a60U, 0x3b434b1c3dd4a0ddU,
  0xbccba439bd1f3860U, 0xbdd2b452bdd642f5U, 0x3cca4833bd182a65U, 0xbd2f2beb3e00d669U,
  0x3bd6a8813c89f7b7U, 0x3cb66a92bd1b2c6cU, 0x3c4916d63b14c8c6U, 0xbd123cacbc85cf62U,
  0xbd35dbe43d1b8881U, 0x3c8110f3bbc06467U, 0x3d7588fcbd754ccbU, 0xbd10a8ad3d867863U,
  0xbc6dcc8a3cf5716dU, 0xbd8d9a00bd09dba6U, 0xbc80d466be03fb56U, 0xbd2a31b63c4cb9d6U,
  0xbd8585ca3ccc65f6U, 0x3d84416fbdd05f60U, 0xbd839792bd65758fU, 0xbc6bd260bd8f9047U,
  0xbc713b523e0b6190U, 0x3c5dcd68bb8f26c8U, 0xbb480e0a3de625feU, 0x3d212d403decc568U,
  0xbcd38110bd096f66U, 0x3dab9f223da70236U, 0x3db3ff6f3d7e10fbU, 0xbaba1da1bb6a0a70U,
  0x3cf5801e3de74bb2U, 0x3ca4075ebce932c8U, 0x3ce40df43ce53559U, 0xbdf0634a3c476cb0U,
  0xbdc25c2cbaaec800U, 0xbd7f70b8bd427cd4U, 0x3cf6c0d13c86d91eU, 0xbd3113783c85686aU,
  0x3d8cb1913d349946U, 0x3dd67a6cbd92e6bfU, 0x3d2732a9bce79f92U, 0x3d8199ae3e0c3c04U,
  0xbc85a874bde99600U, 0x3d64f7593db61c48U, 0x3d27bf2cbd4ebe0fU, 0x3cfb80083e077328U,
  0xbc7102a03c466edcU, 0x3ce78dd6bdc2f492U, 0xbd70fa923c8b96bbU, 0xbd2477f0bdb51a24U,
  0x3cdf4c043b65b1d0U, 0xbbd12ea6bb838b38U, 0xbd9f22593d912316U, 0x3d17ca54bcf79459U,
  0x3e0159db3d6be0c6U, 0xbddcf9fd3d7d09b1U, 0x3dd6ae36bcd1e418U, 0x3dc5072d3df1b454U,
  0xbd228316bdc8942dU, 0x3d7798f43de06da3U, 0x3d976acdbdbdddb6U, 0xbd405581bd30ac3bU,
  0x3b4c82abbd55e6bdU, 0x3e0bcfc63e03b0f3U, 0x3d281204bdaeb2c1U, 0xbde9799f3e1b63f2U,
  0x3d98d86b3c11854aU, 0xbc324c543d832c9dU, 0xbe1c271a3e051e41U, 0x3d8b84e3bd9bfce5U,
  0x3d344d943c468ae0U, 0x3d2df8383cd88aa8U, 0xbe1b622a3da4654fU, 0xbcb32eb0bcf07d76U,
  0x3d5a84da3d0044f8U, 0x3dde0c9bbd3cb42eU, 0xbdcc02a0bcd9e15aU, 0x3c17c2dfbd059858U,
  0xbb2b70f0bd1062a6U, 0xbc7441b63d641f0eU, 0x3d8bc8743d9c9a61U, 0xbcf081a33d11e3e4U,
  0x3dda3c68bd5d06faU, 0x3db02019bde33998U, 0x3dd0cda8bdb135f6U, 0xbcddc511bda1ea99U,
  0x3d772008be07c33fU, 0x3e20e547bde8780fU, 0xbe38307fbc6519aeU, 0x3d13a015bcb90eeaU,
  0x3d412991bce791bfU, 0x3df53807bd7f5f7cU, 0xbc3205d9bc224956U, 0xbdd66e793c2f7bf1U,
  0x3dba0e2dbd0e1936U, 0xbd3b9c16bca40884U, 0xbe045c63bcf6bafaU, 0x3da23199bd2a08f9U,
  0xbdb50e943c3824b4U, 0xbc29ae283baf3098U, 0xbb5e73653d1109eeU, 0x3d8445bb3d1c5970U,
  0xbcc661723c458900U, 0x3dcf0af93c1b3e5eU, 0xbcfbaf523d46ab0cU, 0x3cd9026a3d533504U,
  0x3d8c61e43e071f08U, 0x3e0c1599bd293fb0U, 0x3d00038d3d7e2cbfU, 0x3d9d72823c809b5fU,
  0xbd0c99233cb8636eU, 0xbdb6c40dbb9f5ac6U, 0xbbeee9bcbcb946e6U, 0xbd1398613cf1525dU,
  0x3c404b45bd84e376U, 0x3d1fa0ca3dab7a92U, 0x3d21dec5bd87dbccU, 0x3da278aabd78f416U,
  0xbd29f937bd3b0814U, 0xbd8624703b4e0c3cU, 0x3d384b3ebcd1bcf3U, 0xbd8788893d82c35dU,
  0x3d353c4b3c9b6fbeU, 0x3ca389a8bde989f3U, 0xbc96b26d3ddcdabeU, 0xbaf5a870bcc84195U,
  0x3d3f4f2cbcdbf056U, 0xbd4011a7bd4bf5cdU, 0x3d3bea48bce2089eU, 0x3cb14443bda9bd14U,
  0xbd984ed4bd7e6119U, 0x3d9d2ce43e02933fU, 0xbd4d0bf03c9c5560U, 0xbd327dcc3d94b2bcU,
  0xbd6be7363c413accU, 0xbd4a02863e14a3a9U, 0xbddf8ce5bd0f4968U, 0xbe0293c13e20d0a6U,
  0x3ce545d13e3f86d1U, 0xbdd49c183d3e6178U, 0x3c95cf383da9e160U, 0xbd5355573d33853cU,
  0x3e379178bd5c741cU, 0xbc558be6bd848677U, 0xbd198ad43d1d2317U, 0x3c329a603bdc7448U,
  0xbdd24e0dbd38d2c0U, 0x3cc1692a3b83b4d6U, 0x3d46d2fbba9bc050U, 0xbc9024263e3913aaU,
  0xbdb341f2bd1942ceU, 0xbd8dbb56bc9dff7eU, 0xbd369c813e12e6d2U, 0xbcac55143c4aed14U,
  0xbc06dd603de32a30U, 0x3d6e7435bc8d3c96U, 0x3dc6adfabc955175U, 0xbd816ec2bae2be70U,
  0x3c9b6681bd81005fU, 0xbd91f35f3d7d1326U, 0xbd8c9f8c3d8580baU, 0x3c4670ecbca79055U,
  0xbcf84a05bd17d11aU, 0xbe0f1a5e3c64b9ffU, 0xbe014edabd14f5eeU, 0x3d1b24783d1d00faU,
  0x38a9fda83d8b724cU, 0xbce09c403d235870U, 0x3dd8811c3d994662U, 0x3e05f7133d704390U,
  0xbcdc6e383b015838U, 0x3cf99c443ca29079U, 0x3d88252abd87e6b4U, 0x3cff1f12bc9170b2U,
  0xbdae5a323d84ca5bU, 0xbe3019483c8c7dd1U, 0x3dc696dcbdc571eeU, 0xbc8da1623cda908aU,
  0xbce7602c3d755990U, 0xbbfa10f0bd068630U, 0x3e0452663d327de1U, 0x3d97633e3d184f51U,
  0xbcf6c75ebcd6809aU, 0x3daf9bc83d92f16eU, 0x3c9b59923c92a16aU, 0x3e0a36413db35ef8U,
  0x3d8f03c23da95c04U, 0x3cb850093d86cd69U, 0x3c4e09c8bd9b2eaaU, 0xbc8406eabd69fa75U,
  0x3ba7b66e3b2199e6U, 0x3d7e35393d78d31eU, 0x3d39a524bd48baaeU, 0x3cdf36d63d5662d6U,
  0x3d7b09af3b8fa044U, 0xbdbfe4e3bd0ab695U, 0x3c11fd33be18bd68U, 0xbdcb7ce9bcfe7174U,
  0x3d5ed4d2bcb7f96dU, 0xbc6b1b08bdaae0f4U, 0xbd18b5053d9b15baU, 0xbdf80a693de51689U,
  0xbdeaca763e2bba37U, 0x3bc392b0bc9f5a35U, 0xba28888c3c858d68U, 0xbc998e4d3af987c4U,
  0xbcc29456bd033e31U, 0xbd61dcbdbdae385bU, 0x3d588b483d26e432U, 0xbdba054dbc944632U,
  0x3d9935b33e28f6f8U, 0x3d3a8243bd1fd31bU, 0xbcad2d4abdc5905eU, 0x3de521eeb90781c0U,
  0x3d2a68debdcb2adcU, 0xbde9eb4cbba964d4U, 0xbe0b832ebd59db58U, 0x3d861211bd6dd65dU,
  0xbb9f1b1a3bf68824U, 0x3d0ac70e3ddebbe6U, 0xbda36e11bd03e00cU, 0xbd2ab5fc3db87e1cU,
  0xbd75b3a83da486daU, 0xbd91e7c4bd017348U, 0x3e0476653d66c3ceU, 0x3d7435143b5ffc2fU,
  0xbddea4583d62ab3aU, 0xbd758374bd77477eU, 0x3df835f13d772ffcU, 0xbdf9803d3c6fcd62U,
  0x3d49d8c83e127abdU, 0x3c17191f3bec43ecU, 0x3c861c76bcdbf184U, 0x3d7f536c3b8d67d8U,
  0xbbcade88bd437c56U, 0xbcfb9cf3bc59e476U, 0xbd971275bd9df0a9U, 0x3e253ec2bb9f0a38U,
  0x3b9173e0bd8a6d7eU, 0xbd112b5f3ca661ffU, 0x3d9d02c33d826c6cU, 0xbb7ca6283da891efU,
  0x3dea023a3d974ddeU, 0xbdaa3f70bccd545bU, 0xbbd206e23db6d7abU, 0x3da29fc6bd330b91U,
  0x3d801438bb9373b1U, 0x3d758f43bc0b13b8U, 0xbd14df193c1df7abU, 0xbcd36d8dbdb0b24dU,
  0xbdca1eff3cb65ae9U, 0xbbd0b9c83bc56c13U, 0xbe3a525a3ba46340U, 0x3d0dd83f3dcd5dd8U,
  0x3e1625e1ba7f24b0U, 0xbc00eba8bc315a3cU, 0xbd9f9b1e3d9b4c7dU, 0xbe13e47abd955a83U,
  0x3cd48faf3be1d9d0U, 0xbd9fc5083d06b5c6U, 0x3d4c9208be4daa24U, 0xbc0ed3473ca5eb7bU,
  0xbc9b01043d9c24adU, 0xbdfc0ebcbd8c63ebU, 0xbd2777ac3e6284ceU, 0x3d9c5dc2be34df38U,
  0xbdf8de3dbd96e74eU, 0xbad375253dc3b5a1U, 0xbcd304bf3e1f5704U, 0xbdbd7fb63e23cd07U,
  0xbd45386f3d3576caU, 0xbcb3c1f43d88cae2U, 0xbcd43e65bda0e2b0U, 0xbc93d6fcbd176b60U,
  0x3d0252663d58a165U, 0x3d320b103c11e815U, 0x3d64ed10bd76a84fU, 0xbc8e7ccc3ab9d048U,
  0xbc8b06f0bd20f048U, 0x3d52d9183cb21510U, 0xbd81fe96bbad5ca0U, 0x3cd141e13c2c415aU,
  0xbc8f6de1bdba5d59U, 0x3c9b1ba2bd4d8f00U, 0xbddb82a0bd30daecU, 0x3d6d188ebda6e7ceU,
  0x3d95d0073d25cc90U, 0x3bc9141dbd097cfaU, 0xbd90323f3db0fc4bU, 0x3c445e443de8dbfdU,
  0x3da56d193d25ed69U, 0x3cb8cf603cec1197U, 0x3d2bf56dbd8b65cbU, 0x3d6eaae6bce9b7b8U,
  0xbdf94972bd50519dU, 0xbd5bcc023dab355cU, 0xbd49e62bbc692cb0U, 0xbe2e88ab3e2ad385U,
  0xbd8d80503d055f64U, 0xbd0f28833d0696d2U, 0x3d53b2dbbdc5f09cU, 0x3de7c1453dba79fbU,
  0x3e04e5f53cc3846bU, 0x3c26f56abd716443U, 0x3d78add4bd2dd1d2U, 0xbd3e74663ccd1ce8U,
  0xbe2f7a1dbd21b710U, 0x3da634953d920c1cU, 0x3be5e2d83cfa089eU, 0xbc901833bd8b7f1cU,
  0x3d4b8e763da65b4eU, 0xbdb402c03e026cfbU, 0x3d5cd068bc872cb8U, 0x3dc62dc73d03f366U,
  0xbd8cf3143d25df21U, 0x3ceccc503d20ebdfU, 0x3bd6f61cbd89f0b0U, 0xbe14063ebd5ffff3U,
  0xbd779bd43d79ca22U, 0xbc761ca83dbe7f98U, 0xbd59a8243cd9203aU, 0xbdaf69873d8db0f8U,
  0xbc9224ec3ddb16d4U, 0xbcc45e163cb93bfcU, 0xbb8d63a63dafc754U, 0x3d6859ca3da06262U,
  0xbd8da8943d997500U, 0xbde2635b3c863798U, 0xbd87370bbd55d886U, 0x3d848273bd2d1b0eU,
  0x3c02cf7d3de2df06U, 0x3d968661bd72dfc2U, 0xbd1676b73dcd1aa6U, 0x3dac4fa7bd94c8f9U,
  0x3d28d9613dc780e2U, 0xbc0be69abd8552c3U, 0xbbcdd57cbd940c97U, 0x3d198ef2bd144fd0U,
  0xbd0acc293df8ad24U, 0xbceef6c0bb9be192U, 0x3b80f1533cc379e6U, 0x3d7075763dba0e32U,
  0xbded0a44bdc4bb14U, 0xbd36ddb8bd077e35U, 0x3b79e3f43ad6b9ceU, 0x3d8e44cf3c9042f1U,
  0x3c681ae8be091dcbU, 0x3dc4ff74be0b71b0U, 0x3dde3eeabe1367e9U, 0xbdbb52b2bb7b44c0U,
  0x3ca7f0163c7bfc30U, 0xbdba8de6bd88e616U, 0xb9b35340bd92e8d8U, 0xbd040e8d3d885256U,
  0x3c1c609c3e0b3ed2U, 0xbdf941833e0e9507U, 0x3dea77613e1942ddU, 0xbbf00a7ebda76468U,
  0xbd4bb8063dfac163U, 0xbd82b8723d1253fcU, 0x3ddaf6283d38a2c9U, 0x3dc415c1bcc6020bU,
  0x3d1f374fbc0f7bfcU, 0xbd3a7a08bc84e363U, 0x3e1c0112bcaf1ddaU, 0x3b9fa2bc3c53b060U,
  0x3d28bcb33bded4f6U, 0x3db7d9c43cf6507cU, 0x3cf7fd2c3bf112b8U, 0x3da0ecdc3c6f15d0U,
  0x3b4a7ab83cb3f90dU, 0xbdec7eacbb970a30U, 0x3b6eef2d3c2baed9U, 0x3d24c2d4bc172c56U,
  0x3c444421be1353a8U, 0xbd7e0a08bdc5d62fU, 0xbd7c3b40bdc047caU, 0x3dfa6f8dbd801dd3U,
  0xbda5445c3cfbd204U, 0x3d5f7b6c3d533e6aU, 0xbcbe71f6bd7ab78cU, 0x3c1509273db197c1U,
  0x3ceb1bf53e05e995U, 0x3d5289e7bd312306U, 0x3b72f3303e2d34a3U, 0x3d53b1f83d431ecfU,
  0x3da883973c50d21cU, 0xbd466bf83c066b9aU, 0xbcda2846bceec117U, 0x3da9653ebd22e670U,
  0xbd84feac3dd85a7fU, 0x3da08496bc429d5fU, 0xbc983e603d8c850bU, 0x3e26daac3da1e043U,
  0x3cc34f4d3d5ea4c3U, 0x3d1937de3beea403U, 0xbc9355a0bcefa56dU, 0x3d97311abe0848d5U,
  0xbcb8dc5c3d4820d7U, 0xbc3c876bbd129408U, 0x3e0beca4bd9b8f1cU, 0x3deb729abe035edbU,
  0xbdba0b7abddf81d5U, 0x3bb1f4bebddbd682U, 0xbdcffd7e3d0693e6U, 0x3d949ead3e056eccU,
  0x3c8d34debdf48521U, 0xbd63938abe128f72U, 0xbd975aff3d096109U, 0x3cca8ad3bc8608d4U,
  0xbe00d56abc5dd070U, 0x3d8edc603d3c5bd5U, 0x3d98d4393e41cb66U, 0x3cf9fffe3d130d21U,
  0xbcd2d0933e4051c4U, 0x3da7db4c3d9347beU, 0x3dab2b3c3d2902eaU, 0x3db058d8bd8721c6U,
  0xbdd16de43c17af35U, 0x3da281a23cf0787aU, 0xbdd20155bd4683aeU, 0xbd746a24bdfa09bfU,
  0x3d581b64bd3293ffU, 0xbc6954383d1c3476U, 0x3a474c9cbe0dcd43U, 0xbc5b57953ce61ea6U,
  0x3dad695a3d1e899aU, 0x3d0919e7bd81fdacU, 0x3c8cf89e3d1715b2U, 0x3cc1ebaabd3950fbU,
  0x3dc06b8a3db60136U, 0xbda4fdf3bde14473U, 0x3c76c3ecbd700f01U, 0xbd2e0868bcfbd42cU,
  0xbc3f5d9cbdc20fc3U, 0xbdc92b1c3d3f212cU, 0xbd51b711b9cd9960U, 0xbc15bedbbd7b697bU,
  0x3dc10838bb2ea7ccU, 0xbe13ae21bd483454U, 0xbd727a99bcd13b7eU, 0x3cf73c5e3d812eb0U,
  0x3d26fab23db431a8U, 0x3c40b25cbe0b89a6U, 0x3e1a076e3d9911fdU, 0x3d9929173ba750d4U,
  0x3c85860c3d5e2e77U, 0x3c0eed643cceee94U, 0xbd4ece87babcc5d0U, 0x3d514f4bbc83fe7cU,
  0x3cdd1c1abc35c29cU, 0x3dace25bbc804e8cU, 0xb8b08600bc283affU, 0xbcc2eeae3d94d62eU,
  0x3d233a283bf7559cU, 0xbcbb55703cac6bdbU, 0x3debe128bdd0bc59U, 0xbcc3a4023dc279beU,
  0x3cc9592c3d716240U, 0x3d2425133d64f1a7U, 0x3d98ab1e3c1f1c42U, 0xbd696a013d082487U,
  0xbcfe226cbde64b1dU, 0xbcfc5055bdbe4c79U, 0x3d49f6a4bd86ab48U, 0x3d2664faba4b7790U,
  0x3df98374bd7f24dcU, 0xbdf2be53bc4f1838U, 0xb985d490bb7644beU, 0x3c491eaa3e488a80U,
  0xbbe9134fbc21f623U, 0x3d8124163d857fcdU, 0xbe0a6b583da7f213U, 0x3da004eabd9a44e0U,
  0x3c9d9f1a3a69dda0U, 0xbd8383dcbdacebdbU, 0xbdb6de943d503b86U, 0xbd9eef743d56ff7bU,
  0x3d0ef6a03d3b80d1U, 0xbc293f12bca165fdU, 0x3d9dd41d3d3e80d2U, 0xb93680c0bd9eca34U,
  0xbdb120ac3d27f2c4U, 0x3d3d47263cb007b4U, 0xbdc36c42bcaf9661U, 0xbd71e34abd184430U,
  0xbd0d20fe3dd03f40U, 0xbc63a8ac3cf7716dU, 0x3cf848edbce34c59U, 0x3c3a6bfabc66ed12U,
  0xbb793ccebe0a46aeU, 0x3d660f96ba33d064U, 0xbdb7a23b3c0964e6U, 0x3dcad26ebd86e35aU,
  0x3d1fdcc93d542130U, 0x3d1e3a4a3b21ce8cU, 0xbd6b2cedbd1f4af7U, 0x3d4925a43d530e0aU,
  0x3cb8e4403d016c51U, 0x3e0e31bb3cd332c0U, 0xbe05152cbb718930U, 0x3d9a5b7cbda463fcU,
  0xbc5195cf3cc03a6cU, 0x3dd8c21cbdb068f8U, 0xbd9082c13df487b8U, 0xbd8faa563dafcd46U,
  0x3d0619c8bcd0d1e4U, 0x3baa5880bda1ee93U, 0xbc1a3415bd3f40aaU, 0x3d90c178bad2a9e0U,
  0xbce97a3b3d06b7c5U, 0xbbd8e2a4be0412b7U, 0xbd048db63dcb49c5U, 0x3d065374bd66473bU,
  0x3ca15e80bdb6e726U, 0xbd88624ebdad01e4U, 0x3d02bce8bd8b03d6U, 0xbdcb25003d34d18cU,
  0x3c049c56bd1a5568U, 0xbdc8121c3d6afba9U, 0x3dabd4e5be2c4310U, 0xbdd26f56bca50940U,
  0xbd981b253d95d8eeU, 0xbcf637653dca7f73U, 0xbd1f875e3cc75c1aU, 0x3d0bfd46bd87ba3aU,
  0x3cf7dff4bcec7068U, 0xb9f05c003d41a553U, 0xbdf59702bd3f440eU, 0xbcde54f4bdc53dc1U,
  0x3dda38ed3c5d7234U, 0x3dd5af3abccc2b52U, 0x3cd03b503df2f055U, 0xbe03d2d13de4ccd5U,
  0x3da5f8f13cdfc2f3U, 0xbd96b3583db4705dU, 0xbcbd2bacbd44bdc1U, 0x3dac6f4b3ddb5bf1U,
  0x3d50118c3de30ceaU, 0x3d88e37abd560d25U, 0xbc7f0a8a3cde8c27U, 0xbddf04edbe00a273U,
  0xbd2294083c05458cU, 0x3d3e138dbdd7bc8bU, 0xbd831b92bdb722e6U, 0xbac22120bd01ce96U,
  0x3dec13313db7d31eU, 0xbdad7e1f3dfb3bf0U, 0x3cf2a4f0bc0522caU, 0x3d0e9f37bd96fc98U,
  0xbd40ed5abd0868b5U, 0xbdf4502f3a9471c0U, 0xbdbc0f6a3db571b0U, 0x3bc3fbc83de1ac0dU,
  0xbd81f7bb3dbcd8afU, 0x3bff98143d681d58U, 0x3ca834183d4f00fdU, 0x3d09cfcd3b9cae26U,
  0xbd5c69803da0806eU, 0x3dae3197bd11523fU, 0x3d86c01ebc1178d1U, 0xbddc33ca3d815a73U,
  0x3da5a57ebd03e25dU, 0xbd4531bcbc29e8f1U, 0x3d2da33f3be6e89bU, 0xbdcd296f3d8d2638U,
  0x3de43622bd08b701U, 0x3e0044d6bb9e50acU, 0x3dcd8ccabd0cfe79U, 0xbe1ef161bd8f7338U,
  0xbd4cef65bcdc83fdU, 0xbd062436bdb41ae8U, 0xbc05afb63dc417e6U, 0xbd6df1b83d5c683cU,
  0x3df25d7abdcd3972U, 0xbd833a603e5b2f6aU, 0xbe0cdf00bd900632U, 0x3d867ab1bda6348fU,
  0x3d691584bd098944U, 0x3dcb6bebbd4bc4beU, 0xbcb457b4bcb15e75U, 0x3dd854c2bd646bdfU,
  0x3d5b0552bbbd0a2dU, 0x3cbc44293d820d5eU, 0x3deb2a6c3d9087b9U, 0x3d4f2d87bd2fa9a9U,
  0x3e0cf068bc1c9a3cU, 0x3d5f6b68bc0adfdaU, 0x3d89a42c3e1f3875U, 0xbd614b183a132c10U,
  0xbdae3a17bd1192a5U, 0xbe7961ab3c03fdc4U, 0xbd7f5032bd6b2137U, 0xbd9db0c83ca08d23U,
  0xbd92f3fd3d8a684aU, 0x3d4830b23a9ad870U, 0x3d8e9d59bd1fa4a9U, 0x3d40ba213d613eb3U,
  0xba067f103b9fd3abU, 0xbd49827cbd11c6d6U, 0xbd92c926bd3b929dU, 0xbc9a7a26bc98088eU,
  0x3d853acd3c76a04aU, 0xbcce2c8bbc73a5afU, 0x3d8eb8443d34e118U, 0x3d4b3fd8bd097ba4U,
  0x3a1a54803da45d32U, 0xbd7515fa3d2c2ea1U, 0x3e1ea88bbc929446U, 0x3c234c0a3cc1d64bU,
  0x3deb0b6ab9ea7900U, 0x3bb8657abddf828bU, 0xbe0a0beebbc2ba0cU, 0xbc6da8b4bdb16d88U,
  0x3b9953583ce56cfbU, 0xbd20c886bd47de3dU, 0x3d13826a3c44a0a0U, 0xbd209dfdbd95d63dU,
  0xbdd573d5b9a67dd2U, 0xbddf2ef83c97740cU, 0xbd890ef4bc9c2a5eU, 0xbd05dde03d161f73U,
  0xbac905003b9b07feU, 0x3dbaff95bd1aeb7fU, 0xbc146d233dbf44a6U, 0xbc82ee403c62a0a8U,
  0xbce46fa63c689ed4U, 0xbd821f643a88fa04U, 0x3d43df97bd36f86dU, 0xbd27cc5bbdbb3d5eU,
  0xbd5c499cbda269ccU, 0x3d59aec0bdde92c0U, 0x3b8c4c9c3d30fa81U, 0x3d6cbf84bc93ece2U,
  0x3bdf5888bd0c32e1U, 0xbd38906cbcdd0a3dU, 0x3da943953da7a833U, 0x3c1cbb973d359132U,
  0x3cdc0f14bcc315f2U, 0x38c6c1003dd06408U, 0x3d2f2f143c1a2cd0U, 0x3c780da8bd837254U,
  0x3bc42310bd6e395cU, 0x3d064fc1bd1fb333U, 0xbcb276bb3c8371a6U, 0x3c320eeebd38e5ceU,
  0x3ce9d03ebdd84934U, 0xbd16b925bdbeb161U, 0x3e1b9b303b23cd52U, 0x3db2d4703d92f880U,
  0x3d3ea0afbdfe0320U, 0xbd7fada8bda2ff99U, 0x3dca86073cf38abeU, 0x3c8e15e2bcbf2faaU,
  0xbd810ec8bc639b3aU, 0x3d8805993d9ec0aeU, 0x3c873cfe3d5a68c0U, 0xbcf4b844bdb099adU,
  0xbe1cb7f93c8b8042U, 0x3c15f1f4bd068b00U, 0x3d424f0abe01b073U, 0x3dd05800bc94f51eU,
  0xbdb254513dfd12beU, 0x3d77bd0ebd9e1acaU, 0xbde06d69bd4920bdU, 0x3de6a9e1be0099dfU,
  0xbd13c2b3bdfe6b2aU, 0xbbe466083c9a13cfU, 0x3c07ef07bc797340U, 0x3d8def8c3e287f76U,
  0x3db5fe4e3cb6ad86U, 0xbd431e843ba43bf5U, 0xbcc35de23d804b67U, 0xbce504853d6802a8U,
  0x3d5334c9394a9f00U, 0xbe0d00fabd651ab2U, 0xbd084f143ccf8171U, 0x3e70a190bd5e9f7bU,
  0xbd8fbbc5bbc7bf6cU, 0xbd0d974dbdf28f40U, 0xbde259bfbcd6e319U, 0x3da130bdbdcb77daU,
  0x3e275082bd3a219bU, 0xbd5b7b76bd41e77eU, 0xbd042ad0bdcccafeU, 0xbbee09023c7c8825U,
  0xbd3c9c6bbdd2e498U, 0x3d83156a3b822da6U, 0xbe0ca6ef3ce35ec4U, 0x3d93e8a33d80de8dU,
  0x3bff03943d7084b0U, 0x3c918e693d93b0b4U, 0x3d0c93e73d9bfb62U, 0x3c5ded3a3b6feb50U,
  0xbddd048c3e03e433U, 0x3db421c83d6459e7U, 0x3dae83c03de6faa8U, 0xbd8d0d25bc8755a8U,
  0x3d4bfd503df73d1bU, 0x3e5504ffba37984aU, 0x3c611882bd1212deU, 0xbcff440cbc8798e1U,
  0xbce378e2bd0225d0U, 0x3de543ccbd633d6aU, 0x3da25e68be08445dU, 0xbd8095e2bd56a15aU,
  0x3b586b5c3d889c71U, 0xbd43e1993da0633eU, 0x3daa8d6c3d74cc15U, 0xbd4fcba43d9990e5U,
  0xbd6288ccbd4f1913U, 0x3d3272143d180b35U, 0xbd773710bc1b1af0U, 0xbe1068ba3d4349c9U,
  0xbc5076793d03b694U, 0xbdf6c28abd10a747U, 0xbd2b0ca43cff9856U, 0xbd723440bd6ab087U,
  0xbbcb601ebe1e71feU, 0x3d033e15bba80c2dU, 0x3df36e773ddf4c9eU, 0x3e41404fbde52ea4U,
  0xbd3dca513dfde4abU, 0xbd968bffbd4d5a75U, 0xbd3a4072be5ef51cU, 0x3d425f1abda852a8U,
  0x3d0d037cbd22937cU, 0x3ca0e21cbdc7a195U, 0x3de6f45abd3c5c24U, 0xbd1bcd78bda6f580U,
  0x3c48b6423d427940U, 0x3e248fc4bcb8ab1aU, 0xbe393054bdcff7efU, 0xbd695064bdc5ab9aU,
  0xbd3a8abfbd3429f4U, 0x3d682f673dd83f3eU, 0x3c31a3143da4fc73U, 0xbd6934233cf6df67U,
  0xba9078383cac6605U, 0x3d1e8a2a3d4eea90U, 0xbd418b903d82e559U, 0x3d55506abcef2301U,
  0x3d1ab56fbd9f2a7fU, 0xbc188664bd431e4bU, 0x3d9485e0bd83fa92U, 0x3d7beea3bcd999f9U,
  0xbd12a3f03d832e19U, 0xbb81d15cbd267bbeU, 0xbdb003b8bd9b67c9U, 0x3c2e78d43cdf7d5cU,
  0x3d0235cd3d3c7294U, 0xbbb81f03bc5f2efeU, 0xbd92869d3c436d8aU, 0x3c5569d53d417aa8U,
  0xbdba90d63dd6cc78U, 0x3dc86223bbf37495U, 0x3d7fd617bcb34fa8U, 0xbdbec1033d66eedfU,
  0x3cc2d20cbd515678U, 0x3e284746bdaefdaeU, 0x3d6519683caf1972U, 0x3e10d4ccbd820137U,
  0x3cab5bfbbd54d86dU, 0xbc354caebd3eaa8eU, 0x3cabd1403decca8dU, 0x3d24a6883d7a68feU,
  0xbd8852b93da3aaeeU, 0xbd14fc9b3c8bafb2U, 0xbcea723f3d10c714U, 0x3b038f20bd20d0b0U,
  0xbd8e6474bcf7d72aU, 0xbb8e4a1cbd3e1dfdU, 0xbd9af189bc951582U, 0xbd52bd35bd972198U,
  0x3d8bb08fbd5da51bU, 0x3c660bc5bd2849a4U, 0x3d401a9b3e043784U, 0xbd38bbd6bc8666c0U,
  0x3d42f2ec3dce67eeU, 0x3d98c645be25fbd8U, 0x3d80ee683d3f89deU, 0x3da90e333cdaf3d4U,
  0x3d0d10683bf4bec0U, 0x3da026f03d8f37b3U, 0xbd8774d5bcde2cbaU, 0x3c377c2abd83e0e7U,
  0x3d8a2b84bda33cb9U, 0x3d512eaf3dd5dcfcU, 0xbc90ba98bc13a048U, 0xbba9da3e3c96f5d6U,
  0xbd9acb1a3d8fbe39U, 0x3cfbd1863d147199U, 0xbdbfbf0ebcfecef2U, 0xbdc954a83e1a820eU,
  0x3d90b5b6bda614adU, 0xbd97de783d38511eU, 0xbd4311953d83f0b0U, 0xbd82fa023d689a3bU,
  0xbcc1a671bd4c9156U, 0x3c2ab7f0bdb0b314U, 0xbddd6c97bd3efe0eU, 0x3dfb567cbd9ab118U,
  0x3a4f9760bdd75fe6U, 0x3be46828bcaedd5bU, 0xbd16184b3dbfe018U, 0x3d54c26c3c80a23cU,
  0xbd603b58bd41b00fU, 0x3d098c743d373c2eU, 0xbd9795883da2aeccU, 0xbc5279443d8b9de1U,
  0x3dc18f62bb0b90a0U, 0xbce6920a3dbde48eU, 0x3e6fdc4abb2c5346U, 0xbaba40a3bd57d1a3U,
  0x3dc6e774bde85e0cU, 0xbd48c929bdb7bc90U, 0xbcbcff0cbe09c25bU, 0xbb512ab03aa08d80U,
  0xbd4149c63ddd4b68U, 0xbd3386323ce03bb6U, 0x3b7daa303dbc110cU, 0x3d628276bc4f6378U,
  0xbc9b11ce3b27041eU, 0xbc20aca43d693b03U, 0x3d514af5be388893U, 0xbcc4bcce3ddbf106U,
  0x3b50cff4bce01d26U, 0x3c3cb7543d64d7e6U, 0x3c122c083cc56168U, 0xbda4b89abd4da0a4U,
  0x3dd5859abdc76a3fU, 0x3dd596533dbf753aU, 0xbd84e00c3de69793U, 0xbdc82c0f3d485800U,
  0x3d558c68bc0b6a2cU, 0xbd7640a83d09c586U, 0xbc0f96a23ce1a21eU, 0xbd8a22173dba672dU,
  0xbd6808a1bde924bfU, 0x3c7714263bbe0c4cU, 0xbd375bb4bd78c668U, 0xbc752620bd9e9abaU,
  0x3d8b56373ce3653cU, 0xbce87ef7bc02cbc1U, 0x3da7f93ebcf13d47U, 0xbbb8af11bc613bb3U,
  0x3bad03103d9b438dU, 0xbd93953a3dfa85fdU, 0xbd5d43a23d447d3dU, 0xbcc97ab4bd79f74dU,
  0xbd3fae3b3d8986e5U, 0x3d94d9eebe276c92U, 0xbcbe3e7e3ddbbed6U, 0xbe2d73783d922c4dU,
  0x3d90ed913d1feb29U, 0x3dbfcf33bd1cf130U, 0x3dc3f7b83b7e30f8U, 0xbd542fbdbd478f19U,
  0x3a8073b83e0b2158U, 0xbd168453bdfd4926U, 0xbd92915a3d6ef872U, 0xbced8752bcbd7776U,
  0xbdc998fbbc7c82ecU, 0x3d3190b23d81b371U, 0xbd9990263d64e446U, 0xbdaf69a2bd7cbfb8U,
  0x3c6b30ecbcfac2b2U, 0x3da1b7a7bc325d50U, 0x3d88f2ea3c276260U, 0x3b9f84f4bd410f75U,
  0x3d6e389c3cccda55U, 0xbde29f5f3d56a5faU, 0xbe1da3b0bd768433U, 0x3cf267a2bdb5b695U,
  0xbd1ccba83dadede1U, 0x3d28610f3c72ab50U, 0xbc625f12bc9def2aU, 0xbdc7e6aabe0f6f40U,
  0xbd277ad5bd5c8ec2U, 0xbd846a3b3d306d06U, 0xbcf4a368bde8c301U, 0xbdc195d43bd3c4c4U,
  0xbb4930c03d9db89cU, 0xbd4f42b23c07994cU, 0x3d7dd6ef3dd423fcU, 0xbd80bd6abd2d468aU,
  0xbd5e986abe01726aU, 0x3b455662bdf39e9cU, 0x3c2b922cbdbcfd4fU, 0xbb68058c3d100b6eU,
  0x3d98ceb93db2b795U, 0xbd17f4adbddbb9f0U, 0x3ce19d4abd84e55aU, 0x3d18109e3bcd4331U,
  0x3de47582bca15278U, 0x3e113893bd944b82U, 0x3d89d756bd0d580dU, 0xbd46a22b3dcf6ba7U,
  0xbcceeffe3d58faaeU, 0x3db690cebdbc5718U, 0x3d8bb202bd3a2bc4U, 0xbce2769f3c834e7fU,
  0xbcc8d77cbd9ed29bU, 0x3d518a4cbb8007e8U, 0xbd2794f23dbc5da1U, 0x3d7e67e9bcfd43dfU,
  0x3d6f83aebdbd94e6U, 0x3d1341a13bc4ea1fU, 0x3d59a00a3defb495U, 0x3cbe90debcf62f40U,
  0x3d9697ddbca9fcd2U, 0xbd8e9c4ebd492eb4U, 0x3d34e9f5bac3a408U, 0xbd046ec03d4d30f5U,
  0x3ddbf560bd7e1463U, 0x3de346c4bd480081U, 0xba27d4a8bd95ca96U, 0xbcf2e452bc83851aU,
  0x3cbd517c3d3b1627U, 0x3b9e1d323da84d70U, 0xbd194931bd060226U, 0x3bdf423dbe29e098U,
  0xbaa83f40bdbbcbe1U, 0xbdb7e44e3c39b82eU, 0x3c6ff3c73dd87f8fU, 0x3da637893c108474U,
  0x3cffe9e3bddba2daU, 0x3e0f4a93bc96746cU, 0xbd6e5a5d3d9efe31U, 0x3d2e08923e29d1ceU,
  0x3e0535dabd2836d8U, 0xbc8b9e923cf20c1cU, 0x3d6585fa3c16a5f9U, 0x3dea15d6bde67ba8U,
  0x3d3803953ded5ec9U, 0x3cd67e88bd251456U, 0x3c665b523d2ac6a9U, 0xbd988c7dbdc58e80U,
  0xbd0298963b8e210aU, 0xbc53da4b3d1bb4fcU, 0xbbec9ddc3d4a70beU, 0xbe04e43ebc3deb0bU,
  0xbd05ad68bce22d58U, 0x3e0915d63da68c1dU, 0xbbeae1a03bd214a0U, 0xbd195a563d829428U,
  0xbdebafcfbd074b7eU, 0xbd2e9bc83d412785U, 0x3c358c343c5034daU, 0x3c0ef0e0bd4a943bU,
  0x3d2a8664bddd63c3U, 0x3cd3e26d3bf915aeU, 0x3e0c6033bd1f4845U, 0x3d0497aebc15a7e0U,
  0x3d5c7532bd58a5a5U, 0xbd84062a3dad25b7U, 0xbd3e3a183d94b1e3U, 0xbe22b8f93cb508ccU,
  0x3d5b61813c879c3eU, 0x3dbb74243d977cbbU, 0x3d06e2753c9010b6U, 0x3d2c212a3c14abb0U,
  0xbdbc10dfbd25e30cU, 0x3d0921fdbc1b500fU, 0x3da9e3883caa0ebdU, 0x3cf9f1dcbd642777U,
  0xbccccca43bb7db4fU, 0x3ad7d6203d8a0ce0U, 0xbe133706bdec7c21U, 0xbd8355d9be1a03aeU,
  0x3c431362bcc4b6c5U, 0xbadb33d9bd12a2a2U, 0xbc8777fcbd8b50d6U, 0xbd0334773e46d776U,
  0x3e1e3c363d5be466U, 0x3c2401353d769990U, 0xbca08435bdb30113U, 0xbde3864fbd57e5fbU,
  0xbc5b5e6c3ce1209fU, 0x3d8da545bd315ab3U, 0x3c068496bcc13b00U, 0x3d8c5a9fbd9b8c88U,
  0xbd839c123c185ce8U, 0xbc66bbf4bcea3b93U, 0xbd19ef06bd184965U, 0x3d216cb8bd16351dU,
  0xbcdcb6c8bdbce729U, 0x3c56249cbd964bcaU, 0xbc95c3c4bdb0ba4fU, 0xbce0ef643c9f6b1bU,
  0x3d6f46b83d96adcfU, 0x3d3ad824bd04a966U, 0x3e5aa2a4bd4269ecU, 0xbc62fce13c2fc602U,
  0x3c9107143dd158e0U, 0x3d63a64c3c48623dU, 0xbc8c871a3d47b52cU, 0x3dd92fb93d8a15d3U,
  0xbd8f8e0dbd61bec7U, 0xbe2c2990bdf384aaU, 0xbd0ed233bdb7d2b0U, 0xbbf5e338bd05d9b0U,
  0x3dd89dfd3e143631U, 0x3e00fb11bbf8d3fcU, 0xbe39787c3e37fb12U, 0xbc68a6f4bd6d96b2U,
  0x3dc86c9fbdb10438U, 0x3ce7382a3bb81550U, 0x3e0786883cf0c61aU, 0x3ce9e6fb3be7f590U,
  0xbc22eada3c91c570U, 0x3d8d11a23d4715d6U, 0x3e67f68b3d07ae47U, 0x3d3ba7123d567e94U,
  0xbe39aa2cbddbfc9bU, 0xbc1159d8bd902857U, 0xbd5bf2f1bcf576c5U, 0xbcc58efcbd748f1cU,
  0x3be2d4f43d5fc8c9U, 0xbd62066b3cfe910dU, 0x3d070bd9bd61551dU, 0xbd1e2b6ebda3f3f8U,
  0xbd84b1b3bd44a6b9U, 0x3d3783823d26c944U, 0x3e45b9e7bda2cc62U, 0x3e97f9a5ba7cf080U,
  0xbd14811abda2382eU, 0x3a94c6d0bd25fe9aU, 0x3c0696763d175de8U, 0x3cc37b4b3d8ff298U,
  0xbd25e2fa3d1cbda9U, 0x3cac1fabbdc4f3a9U, 0xbda0fcc4bd589d67U, 0x3d300b7f3ddb6d42U,
  0x3db8f255bb8e9dd0U, 0xbbb6e8233d990c70U, 0xbcd020743d220eb6U, 0xbd19967e3cb9f13fU,
  0xbde04eddbb770d5eU, 0x3cc75a813c54a58fU, 0xbd49d7ecbd8c40a6U, 0x3c643c8fbdbb8cbeU,
  0xbd3f38803daebbbaU, 0x3cf671ca3d901e60U, 0xbd2b53fd3d0f87ccU, 0xbce93282bd4cf324U,
  0xbddf5b2f3e01df12U, 0x3d5552ef3d4f7baeU, 0xbc53f0cfbd153a0cU, 0x3d81c0a93d2db648U,
  0x3d17012e3c8e6648U, 0x3d59577c3d581efbU, 0xbc994ec0bca9f39fU, 0xbcf673ecbdafaea8U,
  0x3c96381a3d8d5281U, 0xbe103930be3df9ccU, 0x3bcdb0703d5d78f2U, 0xbe140edbbd04669bU,
  0x3cf92d673c802456U, 0x3e1d1af4bd59c996U, 0xbb1e5137bc9288b7U, 0x3db27b27bc33aaf5U,
  0x3cf651053d4de7aaU, 0xbd1b7236bd86e632U, 0xbe156d193d55bf5bU, 0x3d0da0133da18566U,
  0xbcd3ba4a3dd027d6U, 0x3dab5db5bdd0abc0U, 0x3d6af995bd14e6feU, 0xbcad46ed3cfa236cU,
  0x3be259fcbd809296U, 0x3e50428cbda2404aU, 0x3ce803ee3d94e7efU, 0x3d9fc33f3cf0b86eU,
  0xbdbd23093d9a975cU, 0x3e1141a9bdd66b36U, 0x3c348de0bcfb03d8U, 0xbb9b1a5cbdaf2342U,
  0x3d53ea873dce8736U, 0xbcc2e8123c95cffeU, 0xbdbba403bca2c70cU, 0x3d616d043cff9e3bU,
  0x3da3e8ae3cc43854U, 0x3c0faac8bd279df6U, 0x3cbc32f6bd820880U, 0xbd585e163bd84856U,
  0x3e2624593c738110U, 0x3dad9f70bdd09502U, 0xbb5a1c083d8cb668U, 0xbd4c81ee3c5128faU,
  0x3d39d191bc9542b6U, 0x3d8c584abde6ef91U, 0x3dd65aa63ba3314aU, 0x3d7e4c0fbda9ca49U,
  0x3d2134803d900c22U, 0xbdb3470dbda47b01U, 0x3e28a6f53cb8481cU, 0x3e04a73a3c801a54U,
  0x3d288e2ebbc44b5cU, 0x3d69b4df3d7b0863U, 0x3bd4999e3beb9da8U, 0xbdb4331cbd3e7842U,
  0xbd481a97bd4d5017U, 0x3d5d23ce3dc444c5U, 0xb9acf700bdbd43c7U, 0xbd5d87303d70e15fU,
  0xbd903693bd55fecbU, 0x3d747c953d4a4938U, 0xbda2d11dbc190fd8U, 0x3da8ccf63dbd1eddU,
  0xbdee6968bd2025e6U, 0xbbac86fa3d3b7b6dU, 0x3d980d03bd93e632U, 0x3e1e39e13bae78d6U,
  0x3d3421253de80b7bU, 0xbc8fc3d3bda1889bU, 0xbc18bfb03b09791aU, 0x3c3ab640bd175b90U,
  0xbd66dc1cbd27a78fU, 0xbdb103f83d22f5a2U, 0x3c1193e43dc7d084U, 0x3cce4f773c52bb30U,
  0x3d0ca6c63cf9c4d5U, 0xbdfe4ab0bd9ef733U, 0xbd2aa16ebd1ba825U, 0x3bf74454bc42474aU,
  0xbdf206523d376d9dU, 0x3df0ec583dfd284bU, 0xbd8a9528bdb313e6U, 0xbd35d014be1c210bU,
  0xbbd389b03c359aceU, 0xbd02b0873c95e96aU, 0x3d29faaabdf80797U, 0x3da2b8743e2342a0U,
  0xbbdb3289bd7b2cb0U, 0x3c6e8ac2bd0a515cU, 0x3d6c7566bce29aabU, 0xbd78fee9bbd6b81aU,
  0xbdc5cba1bc2fb2e0U, 0xbda59e18bd381f01U, 0x3e01a8a1bd2cf1b0U, 0xbc4223a23e0184eaU,
  0xbcd4a8aa3de28310U, 0xbc56c5843e1bf834U, 0x3c2793703df425e0U, 0x3c84b22ebc75a484U,
  0x3d740c783da69ecfU, 0x3d39bfd4bd150c00U, 0xbd21bc1b3df58529U, 0x3dc103dbbe46c641U,
  0x3c8f2844bcde8a48U, 0x3d493e6a3dae15f0U, 0xbc1c35a13d5e8161U, 0xbbd793d2bd74963bU,
  0x3c9be71e3d8d0b24U, 0xbda1641cbd00f856U, 0xbbca8720bd4ae4f8U, 0x3ace0df03e139793U,
  0xbe399102bbb0fff8U, 0xbda1a8efbdd799d6U, 0x3d80828a3cf0c0dcU, 0xbd081c19bd93d844U,
  0x3dbef813bca0d158U, 0x3d5071de3d46ef14U, 0x3e0ab5d73d3d77f2U, 0x3e02c5a1bd3b0c06U,
  0x3dfa24adbde4c78dU, 0x3ca31c0fbd58715dU, 0x3de67d503d6acc43U, 0xbdb8fa0cbe00787bU,
  0xbd22de9dbd2df31dU, 0x3d874afb3dcb8202U, 0x3b282b38bd8cb6d0U, 0xbd13665dbd419a2cU,
  0xbd27ca573cd81268U, 0xbdda89553cb485b3U, 0xbbef06133da5c858U, 0xbd16c6103dc47fe8U,
  0xbd37d82b3cc4857cU, 0xbdbd71f8b8d71200U, 0x3c7ef508bd2956b4U, 0xbbe1c6c8bc922fbdU,
  0xbde78280bbbee714U, 0xbcd135043de55caeU, 0xbb3aacf03c235514U, 0xbd70e456bc516e14U,
  0xbd5d1caebc3f135aU, 0xbc2efd71bdd44d59U, 0xbe042acfbbc5b452U, 0xbdc3a4403ba10968U,
  0xbd47a9cb3a9cf8f8U, 0x3ddc12263cc9b03cU, 0xbbe10b68bd0bdb36U, 0xbd69b762bb932a4dU,
  0x3dc6d0903d16ce64U, 0x3d87b51c3d477ca9U, 0x3d30b6863d547499U, 0x3a3d2c40bd8937bcU,
  0x3b7829183da528e0U, 0x3cfd29fb3d49b041U, 0x3b9cfd0cbd17f2f6U, 0xbdb06f893d9650fcU,
  0xbbfc69f8bbaf931eU, 0x3d9d7115bbd5b5f0U, 0x3d042a88bd002c4bU, 0xbdccf55d3dbba8abU,
  0xbda0d6b43d2994e8U, 0xbbfd87723dde914aU, 0xbdffbe223d26253eU, 0xbda11d2abd639768U,
  0xbd05812b3e05ac04U, 0x3d2463023c98da24U, 0x3d1012243c88792dU, 0x3c4f1033bc0b7b24U,
  0x3cb43b98bd81d5c5U, 0x3c3e59f6bc60bb1cU, 0xbe5131e83dc26156U, 0x3d8a25583b61167cU,
  0x3da3a82b3d7b6397U, 0x3d8d398b3cb1a2bfU, 0xbd89876b3cdb35f8U, 0xbcf05fad3dbb814aU,
  0x3d2526773e0b8721U, 0x3d6d9f0a3d7e244dU, 0x3d73149b3d038bfcU, 0xbd9a49cabc9204deU,
  0x3be02d74bb4429e0U, 0xbdeb764abd4e48a6U, 0xbdb988e0bd3111cfU, 0xbcd024733d816e33U,
  0x3de2b7bf3ca61ef2U, 0x3dab467ebd75b461U, 0x3d686f3dbc94a518U, 0x3cf8a7f0bcaec157U,
  0xbc80867ebd615164U, 0xbcea0d133ce01d87U, 0x3d05306b3dbb60a8U, 0x3d7cf05f3ca8966eU,
  0x3d78e108bd7729d1U, 0x3e27719b3e0d0d30U, 0x3d106b613d0342d9U, 0xbdd710cc3d8f44ddU,
  0x3ad2bd803c74a475U, 0xbd423c72bd0e8784U, 0xbae22e80bd9dbdd2U, 0xbcd8a8c3bc8476d4U,
  0xbd8cb6bb3ddd57f8U, 0x3d2518b2bce122b0U, 0x3daaa1e3bda20713U, 0xbdb286903d418e7eU,
  0x3d2ccdffbda4dbd0U, 0xbc287552bdb8bddbU, 0xbd704183bdb88280U, 0xbc327e883c2f8f1aU,
  0x3cc60d6bbb4dd7a4U, 0xbc3740cc3cf64964U, 0xbe3367c0bda55705U, 0xbd84f5e83dde5df4U,
  0xbd95f315bd1ed6dcU, 0xbbc04d643da78a27U, 0x3e26a7483d40200aU, 0x3d8a47a6bcdf4bfeU,
  0xbd9107b4bd049e4dU, 0x3dbfa0aa3d87e0b1U, 0xbc803accbd5b3c7aU, 0x3e00c562bd442acaU,
  0xbaf0d640bd334889U, 0xbd2393a2bd22ecbeU, 0xbdd751d63d30c2b4U, 0xbcd97e1c3d991deeU,
  0x3b47449cbd2d0b8cU, 0x3d0b68e93d355993U, 0x3d7d2acfbd833095U, 0xbc8ca4203e3badd9U,
  0xbd8c5f3dbc37ccf2U, 0x3deed8a83dc6065cU, 0x3d1b350abdffc459U, 0xbd9e6e3abb347d68U,
  0xbd19ee5ebccee76eU, 0x3db3ebf83d854a3eU, 0xbac9cc50be0ce5ddU, 0xbc38fc64bd2561d9U,
  0x3d8ede16bd8f3c21U, 0xbd83d5333d78ea9cU, 0x3bb0f670bda9fc88U, 0xbdc13aaf3bec657cU,
  0x3d115e443d00337bU, 0xbd803c1cbdc5e7b5U, 0x3d8e41ee3d1707b1U, 0x3d34247e3cab23b0U,
  0x3cdc29fb3b92cf5cU, 0x3cb2e988bc1eaa34U, 0xbd01d3c33d436b9aU, 0xbe71fe8abd873db9U,
  0xbe19a7f93df9f5f0U, 0xbd7c44363d74e1ecU, 0x3cd6b3583cae0c30U, 0xbdab8b453d726fdcU,
  0x3a9aed80bcb99d81U, 0xbd98244ebe09507bU, 0xbdb69a80be264846U, 0x39dcc8e0bda9936dU,
  0x3def73503d794bbbU, 0x3d0476d73d3f8320U, 0xbd6ac31a3de31bb3U, 0x3c1aad053d967f0eU,
  0xbc80502e3d242736U, 0xbd1f13773e10bcf0U, 0x3d77a3a63cfa791eU, 0x3be9acfcbca70c01U,
  0xbd14c9973ba8ecf0U, 0xbdc556253d28b1c2U, 0xbe17f654bd1ade94U, 0xbd94be6a3d91222fU,
  0xbd2fe36f3d5dc299U, 0x3daf8d70bdfa751bU, 0x3e3c65bc3bc94a28U, 0x3d9f91483d7ce6f8U,
  0x3dfd79823e2f2b0dU, 0x3bb11ed9bc97d660U, 0xbceb655a3d746018U, 0x3dca0c8a3cb4f93fU,
  0xbcd14f2c3dc23375U, 0xbd6c1f2cbc98de8cU, 0x3d77efdabd99cb8fU, 0x3db47a7cbdd3cf21U,
  0xbd80c3a43d468dd6U, 0x3d67c8933defc910U, 0x3d1e7d253db321b2U, 0xbd98ba2cbd0ad942U,
  0x3d32e3173d9e57f4U, 0x3d3410aa3d81e70cU, 0x3d3023c23d9e9b56U, 0xbbd4f9a5bd873821U,
  0xbd03e6ea3dc41c78U, 0xbe0392acbc8c2485U, 0x3cd529c6bd1f3e25U, 0xbd17c97c3da19f82U,
  0xbdcd5dc93d5760b8U, 0x3e0fcc51bcb8a816U, 0x3da22afe3b584550U, 0xbcab50943dbec5c1U,
  0x3d017d6bbc54ecd3U, 0x3d74b2c83e16c2c3U, 0xbbcc0f30bb17b5a6U, 0xbd69dcd5bde7b6d0U,
  0x3d737b1d3d8c02beU, 0xbbd469f13d5c6778U, 0x3cbfd8c2bce4ebbeU, 0x3c0644103dcd3789U,
  0x3c83f2f53aea7800U, 0xbddcaed6bdf9695fU, 0xbc1ab09c3d720dc2U, 0xbda867df3b1c8c88U,
  0x3e19b96cbda892b8U, 0xbd7562d8bd97107bU, 0x3e02ef91bd3d5300U, 0x3d4d59f8bdbb453bU,
  0x3dbc9678bb73fd0cU, 0x3dd14fdabd5694deU, 0xbe2658083dd2c0f2U, 0x3cc2cb7e3de9213aU,
  0xbc740ff33cdc596aU, 0x3d7bbb693dc7378eU, 0x3d9b95683dee644eU, 0x3a5654403d3fff3cU,
  0xbd4500443cb6df74U, 0x3d1e2358bcc151b8U, 0xbca798d83d92f13bU, 0xbc55ee16bd199dd1U,
  0xbd05c068bd7e59a6U, 0x3ced4b04bd2a9165U, 0xbceb07e8bd8493f5U, 0x3d5e56713d379067U,
  0x3da34514bd093670U, 0x3c4687ccbdf7ccceU, 0x3db01a983d27f481U, 0x3d98a7973ddf0e9cU,
  0x3a6cec40bdd7b976U, 0x3dce6f15bc136402U, 0x3da0c42cbda05e7eU, 0x3e54ed35bc765c20U,
  0x3d23d964bd602ed7U, 0x3bfab9f83da7216fU, 0x3e729a333cf527eeU, 0x3cccf41ebcd062fcU,
  0x3d6a21e7bc7bac0cU, 0xbe08d3183cbee179U, 0xbd31a8e5ba999c70U, 0xbbd3926cbd605a7cU,
  0x3c96d148bd6227a5U, 0xbc81d90dbd289656U, 0xbd9d12fc3c8b40c8U, 0xbd37163dbdebfe0aU,
  0x3d10edfcbd4fa7b0U, 0x3d3caa54bcd08391U, 0x3cffd68bbbb03a5eU, 0x3c75f3cebb44ac78U,
  0xbdeb5fc2bcae7195U, 0xbd393b683d9088a6U, 0xbd5de8933de56d44U, 0xbd7e9eb73ded95e3U,
  0x3d5945c83c9c5c88U, 0x3bafab9c3e70e16eU, 0x3e1407f5bdcfb1f5U, 0xbd2a62e83dbf799aU,
  0x3de81c58be0a54e7U, 0x3d2bac943e06f62aU, 0x3d4aa8243d92c21dU, 0x3d1e7e56bd1fa250U,
  0xbe1b67dbbc420a90U, 0x3d189046bd6022e3U, 0xbd5e84653cf8e93bU, 0xbd351ee23da4f901U,
  0x3c37fa5cbb9e4746U, 0xbc96dedb3cc24c70U, 0xbd95556abd3f3b40U, 0xbd5951913ae1d500U,
  0x3e0a3fd53d834306U, 0xbd49d49e3e542cd1U, 0xbc2701e93e19bdd2U, 0xbdd1b62a3e0ed225U,
  0x3d74498dbccc1d08U, 0x3da53ea03cd36956U, 0x3daebe5abd451ff0U, 0x3c4a42e23dd67e11U,
  0xbc8a40e83cac1792U, 0xbde58783bd63ba3eU, 0x3ba26cac3e0db02aU, 0xbd960cdd3d045364U,
  0x3d30a37d3b2e5b50U, 0xbc8caf173d0f41d4U, 0x38980600bd58a672U, 0x3c382b10bc2a5f6cU,
  0x3d5a90143cd1bcb4U, 0xbd039b6d3d08f28cU, 0x3dc525833dbcea84U, 0xbe3010233d36ab73U,
  0x3d70a133be380418U, 0xbcc9c7b33b3f20c0U, 0xbd2b552e3d12d52eU, 0x3dca2e2d3c015f9cU,
  0xbc5f7aefbc0736e4U, 0xbce097543d9a0f8eU, 0xbdc9e95bbb0773d0U, 0xbd25773cbe1d3d1cU,
  0xbd8d8448bdf4cf7bU, 0x3c4be6cc3d18b52aU, 0x3cef95e83d1bfaceU, 0x3d02ec00bd3c0b51U,
  0xbd1d83b33d2eeba4U, 0x3dafa6103da83e2bU, 0xbd7750893dab0308U, 0xbc2609cc3cae546dU,
  0x3c4b85e83d02314eU, 0xbda2a3b43ac7faa0U, 0xbcd640fdbe18cd2dU, 0xbd103bfe3cf4cf68U,
  0x3c8031b93d1d26fcU, 0x3d19f80d3e59c6e4U, 0x3d02073e3b564268U, 0x3da9f8afb851fb80U,
  0xbd2018d33e012798U, 0xbc572c98bd1ee091U, 0xbcf61dfbbdaacee6U, 0xbdd2c576be197375U,
  0xbd5b903f3c097955U, 0x3bb43234be44c0c1U, 0xbda9180d3ce6ec1dU, 0x3d302b1a3ccc4069U,
  0x3cad6ffbbde688e4U, 0x3c9727663d4fccf4U, 0x3d1f0a873ceb1acfU, 0xbdc8c0ffbd3aed70U,
  0x3da7d0f83c9d9c04U, 0xbdd242bdbce0081cU, 0xbb97bab4bdb10474U, 0xbd84f674be20408dU,
  0x3d947028bd40d747U, 0xbbface0ebd113b88U, 0xbd4114fa3cab9a80U, 0xbcecfda13dbacac9U,
  0xbccc7a423dd9c193U, 0x3ca013d23d89dfc4U, 0xbd62e3c53de2ab59U, 0xbe2a453abd114594U,
  0x3dd5a17a3dad31f8U, 0xbd26c2babd85a55bU, 0x3d842ac4bdb7a6d4U, 0xbdaddf23bc45998eU,
  0x3d0fa2fa3dab62b6U, 0x3d5b1e2e3c01bf60U, 0x3cd086523c0e5142U, 0x3bf239eb3b8a53acU,
  0xbce427cc3cf98337U, 0x3c91ee56be20cd69U, 0x3cbc5b243c0c10ceU, 0xbd147581be0cddf0U,
  0xbae2c5003c17ec5eU, 0xbdc6cd5c3dcab968U, 0x3da8b97a3deb63a6U, 0x3cc969643cfcef0aU,
  0x3df5fde6bd71e877U, 0x3c5e4d47bd3e3884U, 0x3df5b5febc8b4010U, 0x3d84669d3d0790f3U,
  0xba94c160bd3b9a87U, 0xbe42a9cc3ced7d22U, 0x3c9411fa3df73824U, 0xbce83c543d6437d0U,
  0x3d3716f43d0d5c84U, 0xbd9aaee63d904d3aU, 0x3d406af93b5b93bdU, 0xbcd25a43391f2240U,
  0x3d457ba4bcdfe4ecU, 0xbd38f900bd5fd5cbU, 0x3d6e09cb3d59d2b1U, 0x3dff987b3de9cd57U,
  0xbe1b78b63b595572U, 0xbe01370c3c8b8e38U, 0xba57d96bbe09b3faU, 0x3ca646c03d8043a5U,
  0x3d9473853d55718aU, 0x3bf5c33c3d72b234U, 0x3cfb5591bc230b51U, 0xbcefb521bd961124U,
  0x3c17592a3d8af907U, 0xbd7cfb52bd9f0b74U, 0xbdf5ebd13d317038U, 0x3d5d992abd9ad987U,
  0xbde18dce3ddd99b7U, 0x3db398433da5df82U, 0xbbd961c0be1aa876U, 0xbe04bbad3d3e4836U,
  0x3d59c2263bb87660U, 0xbe07630dbdc0a850U, 0x3d64b1c43e24fb8eU, 0x3c830edbbdce6856U,
  0xbda91290bd53a0a4U, 0xbd78a914bde1fc5dU, 0x3d4637f7bc965062U, 0x3cd17f873b6fe99eU,
  0xbca77e94bd9ff952U, 0xbccdf9c83d6b376bU, 0xbd2b300dbccefc0aU, 0x3d1ac6bfbe03969aU,
  0x3d212e8d3d32b0a1U, 0x3defaed2bd39c626U, 0x3d77be73bd517a54U, 0x3d9d2794bd915e97U,
  0x3d7ea019bd1661ecU, 0xbd353ce23d135300U, 0xbd81c924bcabb465U, 0x3d95e77bbd74b5eaU,
  0xbc2dbf23be29bc43U, 0x3d11460fbccd31ceU, 0xbd11937cbd72d9ccU, 0x3daf0c663d8adb1cU,
  0x3d526824bd8c189aU, 0x3b6b7ae0bc697924U, 0xbb2c5a993cf8fadeU, 0xbd193707bd4e6a72U,
  0xbc973385bc9b6a4aU, 0xbd885b713da40b71U, 0xbb7a6b683cfca991U, 0x3d3891803e091147U,
  0xbd9b0ef4bb8161d8U, 0x3c6a752a3d3596abU, 0x3d0a4092be272406U, 0xbdfc236cbdbbb2f8U,
  0x3d0f9197bdd428b3U, 0xbd5fe4b93d2a2d08U, 0x3d722248bd12b627U, 0xbc3b39f83d717003U,
  0x3ce5cb68be0523c9U, 0xbc435f803d135899U, 0xbe29f6833d34715bU, 0xbb40e7203d36fffdU,
  0xbe08c9483ded2cd5U, 0xbe22b4cb3b9c2600U, 0xbbe19f98bd9bd8d0U, 0x3d5483dabc680d7aU,
  0xbcd82a02bd935376U, 0xbdb819f1bc910d58U, 0xbd597a0d3e609aa6U, 0x3e0055623d6682b2U,
  0xbd5acc4f3d246987U, 0xbdd53b8bbcb4e2f1U, 0xbb49990cbc22fb05U, 0xbc27a48cbda14d3bU,
  0xbcea5e5d3c8829ebU, 0xbd7407b9bdb615daU, 0x3d83246f3ce4bd94U, 0xbd8f0f933dd05e0cU,
  0xbd41f9723d8dc2b6U, 0x3e3655443dce3fc6U, 0x3da19962be0428c0U, 0x3c788b8ebc981ba0U,
  0xbcf53972bbbce26cU, 0xbe1ee2a5bbf6a487U, 0xbd9ea91abd02208fU, 0xbd99ab96bddcc618U,
  0x3d4372bcbd324debU, 0x3da911b63de23b0eU, 0x3d081fbcbd3d0479U, 0xbe0259fe3be07bc0U,
  0xbcc4c25abcaedb22U, 0x3d97d626bccce870U, 0x3ddca18e3c276be0U, 0x3d87dce93c305fdbU,
  0x3d5929f23d7661b2U, 0x3e045cbfbdf5a696U, 0x3dbff81d3d52e06aU, 0x3d8445babd30b1bcU,
  0xbd8805efbc0f43dcU, 0x3cd20c48bc510c5cU, 0xbb63ce403e1deb4eU, 0xbc8e1e563db197b3U,
  0x3b26a9fc3dce8609U, 0xbd900018bd51df2eU, 0x3d4676843d8fe9b0U, 0x3d3236253de92224U,
  0xbd510388bdc037bcU, 0xbe295358bdd08e4eU, 0x3de0718a3d592db8U, 0x3db7ef0dbcc4a8faU,
  0xbd4a9b863b298e40U, 0xbc69d1ee3dda544aU, 0x3dad09d8bb439b30U, 0xbcccaddc3e1526a7U,
  0x3cd2005c3e20d639U, 0x3cd8c7afbdc68d8eU, 0xbd19546d3cb48456U, 0xbd34f330bc0d67b3U,
  0x3cd256d43d2121ceU, 0x3c9bd6b23d96d196U, 0x3d1e60c9bd9f9542U, 0x3cac1e1c3cb9943bU,
  0x3da365fa3d1babc5U, 0xbd822f1ebce3dc3aU, 0x3d81601ebd87a62eU, 0x3dd87e723cee5a56U,
  0xbcbaa6b8bd560d74U, 0xbd05af3dbd3e5bf1U, 0x3c4fb0cd3c9b6394U, 0x3da1a6a3bc8d2830U,
  0x3ddd3cc03e032b9fU, 0xbcfdeb8e3da5c12fU, 0x3cd526ae3cbd3b8eU, 0xbdb618b33cb28f79U,
  0x3db186073dde6726U, 0x3b08f0d83bbe8610U, 0x38b4afc0bc398aeaU, 0x3c9232acbd36c6e4U,
  0x3d938710bd50e383U, 0xbd9ba3aa3d1a1fc7U, 0x3daa857e3cd1b622U, 0x3dc9738cbd439f70U,
  0xbca144c83dc037a5U, 0xbe098171bd32b677U, 0x3d9ad149bda36b0cU, 0xbd1dbd80bddccf58U,
  0xbd1d73a6bd0840f1U, 0xbcf70fb13d379455U, 0xbdc5ccb63caa25ceU, 0xbdd0e175bdc27d37U,
  0xbd96c65e3cc4350aU, 0x3de0c1dabc12da0eU, 0xbd647a69badc9210U, 0x3ca200a5bd4e77a5U,
  0x3da521773c646e16U, 0xbcb239f4bd81d4d6U, 0xbc87dc64ba8ee6b8U, 0x3de5fdb83db31b52U,
  0x3c935010be117925U, 0x3cedff733c86f17cU, 0x3dd4c9c4bcb94334U, 0xbdd55bb4bd0963cbU,
  0xba6b64c03d9c43e0U, 0xbd4624edbe0cff0cU, 0x3cc704363d9d9204U, 0xbd2e0af7bd282ab6U,
  0x3da90140bd072489U, 0xbd10f3503dceaa72U, 0xbe0018a13d22126fU, 0xbd9298a8bc204544U,
  0x3d70634b3ccfcd82U, 0x3c4fe239bd7aacf8U, 0xbe048a433df8e94fU, 0xbcc66362bb61590cU,
  0xbdf3f1e9bd2f3485U, 0xbb80e1a03dcf1144U, 0x3d2590fdbd54ea2aU, 0x3c76be86bc96533aU,
  0xbcf727e2bd76688aU, 0xbc96ea2a3dded5bcU, 0x3dca76b2bd448899U, 0xbc628fb4bc67e3e5U,
  0xbbcaca18bd971827U, 0x3dfdfe7a3d92aca3U, 0xbddcaaee3c2f1b36U, 0x3da8ebd8bd26229aU,
  0x3d92f6acbd1694edU, 0xbcf98734bdd9954aU, 0x3e0382953d92bd1aU, 0x3def83e0bd2759c4U,
  0xbd8a14e93cf61b85U, 0x3d454af4bd8549e7U, 0xbbcd04523d6ba312U, 0xbcade6e9bcc74164U,
  0xbc913b943dc52d8fU, 0xbc44b3a9bdb3d742U, 0x3c3f83b83c9cbe4eU, 0x3d1a86e4bd72d0f4U,
  0xbc1b08f73ca52b6eU, 0xbe140becbd046c80U, 0xbd0911dfbd34d474U, 0xbc7f3775bd490665U,
  0x3c7e43e7bca11492U, 0x3d912344bda51148U, 0xbd4473c6bd05a909U, 0x3d0cd9fb3ddbda81U,
  0xbdc50dbf3c1f8d7eU, 0x3e136a443dbda614U, 0x3d1ed34f3cec6129U, 0x3d064048bd95abb8U,
  0x3da225b63dcc99f8U, 0x3d591c0bbcaf920eU, 0xbd4f3b59bd56bc02U, 0x3d81ad193d19404cU,
  0xbda864b4bca973e1U, 0x3b649bacbd2440f5U, 0x3d3d0002bbab6518U, 0x3b4715e0bc4e0740U,
  0xbd4c0aa33bdb5fc8U, 0x3c070a8bbc78b35dU, 0x3d41effabdf66f8fU, 0x3c864218bd39eeebU,
  0xbd4f28c5bd7c0c9fU, 0x3db1cc25bd80ac85U, 0x3d4894503c617fd4U, 0x3d63079bbc804770U,
  0xbd0cbe673d7afe29U, 0x3c064eb4bd503620U, 0xbd8d8d3ebdad0a0dU, 0xbe015ff8bdc11904U,
  0xbdbf5e65bdcf87caU, 0x3d7a45783c76510cU, 0xbda33e9abbeb1fd0U, 0x3d9bac9a3c66170aU,
  0xbcf2f50cbd6f1066U, 0x3ccef0fe3d86ef85U, 0xbd3950b6bb323ff8U, 0x3c8e78a43d3a31c6U,
  0xbcc2caf7bd94a89aU, 0xbca5b0143bcca9b8U, 0xbd5d0956bd92b413U, 0x3c9f7b3cbd331418U,
  0xbcdfad4cbe23c2c4U, 0xbd34e5dd3c7a93dcU, 0x3cde02843bc32fa8U, 0x3cd9bf18bc3d5868U,
  0x3d99f1de3d5f10a4U, 0xbd954e6fbd29b8e4U, 0x3de9a3edbcda561eU, 0xbdba911d3e05c0d7U,
  0x3c0e9311bc9d658cU, 0x3d60288ebdf27dd4U, 0x3d175af3bc669c61U, 0xbd11ac123d85779bU,
  0xbd32dc2f3d96b068U, 0x3c069bb43c65fc71U, 0x3cdcece13ce0f0aaU, 0xbd3c56b03d60bc72U,
  0xbc8022423db0166aU, 0xba4ac4a0be0677f1U, 0x3d45eb073d6a91e0U, 0xbdd2d7f93d159434U,
  0xbca76c163dc8eda3U, 0xbd41b669bb85a710U, 0xbe117192be1405a7U, 0x3cce110ebe33d668U,
  0x3d17cef63d6e8267U, 0xbe02b4cfbd44bffaU, 0xbd0b0b98bd52f130U, 0x3d779798bd78b4daU,
  0x3a2cba00bdb16c7bU, 0xbda556e73dd53a45U, 0x3d5d913a3caa42bfU, 0x3da922c5be22899eU,
  0x3c414f34bb84e53dU, 0x3da08502bd064177U, 0xbd3dcfda3c4718e4U, 0x3e0d30ddbe0620f7U,
  0x3de2ef01bc00cab3U, 0xbe529b243dc40b68U, 0x3d6f3138bda3fc3fU, 0x3e0d3cf2bbfd4cc4U,
  0x3cb2011cbdbe8c63U, 0x3ce3d974bcdc8c9cU, 0x3c9b4298bd6ee783U, 0x3b9c9928bdb16318U,
  0x3d9baa6e3bcc5b80U, 0xbdc2d7c4bb5f3260U, 0x3e072d46bcc0feb4U, 0xbdb84d3d3c985570U,
  0x3cc2f1e43d078ab1U, 0xbe06df5dbc19b3e8U, 0x3df1082cbda41860U, 0xbd9ce4a63d71140eU,
  0x3c6985103b8516c0U, 0xbcc6ca503e214fc4U, 0x3ccb9e3b3ccf13a3U, 0xbd0cc920bdd9457bU,
  0x3d996deabddf960eU, 0x3db04376be01bdb1U, 0x3d1c4f4b3db1fc73U, 0x3a7f08c0bd6aae96U,
  0xbd84697cbc783c5eU, 0xbc3d2f6dbdd15a55U, 0x3d86e93e3d40d6eeU, 0x3d77bc733db90350U,
  0x3b2ca100bdd01affU, 0x3c96b8dc3aad43d4U, 0xbb40e3a83dec6ce7U, 0x3c7cfd80bd0221a8U,
  0x3ce7ce96bdc31785U, 0xbd769bea3c51a926U, 0xbd4dab4a3d659280U, 0xbd5a65eebcfbce08U,
  0x3c59093c3e7085a2U, 0x3d1fae8a3d3db575U, 0x3dc46e7abca03538U, 0x3e2bbe6b3d7dcbceU,
  0xbd21831a3cb5295aU, 0x3cc4d8173d847c5cU, 0x3e1b482a3df346c4U, 0x3d43b5c53d1b4729U,
  0xbdaa7ba73d45dc32U, 0xbd6039353ded755aU, 0xbca76b49bd8590d5U, 0x3c888710bca115d2U,
  0x3c6fd8843aa676d4U, 0x3d9010bcbd7c8158U, 0xbcac5cb93e0f9afeU, 0xbd24cce53d80c578U,
  0xbc70c14c3baea81eU, 0xbbc38960bced616eU, 0x3cf44ea53d156143U, 0x3b0504003c5b6dfaU,
  0xbd8a0aabbc959b64U, 0xbc7ffd9b3b472490U, 0xbcf438913de8a359U, 0x3d801858bd37d85dU,
  0xbdde754cbd1c65c7U, 0x3d4e85bf3cefa00aU, 0x3daf9e903c536764U, 0xbc37540a3c95904eU,
  0x3c1671ef3dc207a0U, 0xbced843b3c7637baU, 0xbd638879bd9c5116U, 0xbdc08450bc847a04U,
  0xbdf3247e3cb70742U, 0x3d8e97c73c2b8db5U, 0x3d3702a93dcd5a07U, 0x3cf272d23e13b30eU,
  0xbe012d06b8894300U, 0x3c7eca10bd2e5473U, 0x3dc7c6583c2db280U, 0x3cb96b79bda7665fU,
  0xbcca84dcbdb2d1d0U, 0xbce39b2ebd52a306U, 0x3c178ed33c918bfaU, 0x3c1f86383e5ac58aU,
  0xbca9ed963c01657cU, 0xbdf09de2bcb61d46U, 0x3d657481bd60da64U, 0xbd4cbf68bca9d8c4U,
  0x3cbdd75d3d4053e9U, 0xbddc47b83cac1ee2U, 0xbda570c63d59d5f7U, 0x3c7a2a503d762853U,
  0x3dae79ba3e22411bU, 0x3dede8c33d819a19U, 0xbceb32f6bd669ecaU, 0xbccf39b6bd36b7e1U,
  0xbc794345bcb97f7bU, 0x3da6f331bdc054c4U, 0x3d5a12843d9bb657U, 0xbd0b76163c46a8e3U,
  0x3d49070abd83f770U, 0xbb096bd6bd5ecce6U, 0x3d64e8b4bc223a72U, 0xbc8501093db12bfeU,
  0xbc9ff124bd03b4e9U, 0xbdc720debd96e596U, 0x3ca0afcc3a3cd810U, 0x3dd8eb603d16cedfU,
  0x3dc6b0f7bd7a70d4U, 0x3c99e9e13dcf878dU, 0x3d1be763bd31e583U, 0xbd96600f3de3e161U,
  0x3db6f8b3bd37227eU, 0xbde1ad60bd9a7686U, 0x3d0fdcc03d8ba5d5U, 0x3e3d125fbda866a7U,
  0x3bbf6710bc8d674aU, 0x3d5f99763d53d5f9U, 0x3d38fa043d4ba6d8U, 0xbd5d71c7bdbce94fU,
  0x3cffb0c43d8c2751U, 0x3d120dee3d34891fU, 0xbc1ae8c13c23f6a5U, 0x3d0c4d5f3e347e95U,
  0xbd5a0e58bc1215b5U, 0x3dd3f1d83dc9755eU, 0x3cd418e4bde46861U, 0xbe13f0e9bc0a8f8aU,
  0xbd0376253d7ac60bU, 0xbcf47500bc0e3286U, 0xbd50e6e0bccf1168U, 0xbd556a01bc1740edU,
  0xbe03a50abdcdd6d2U, 0xbdf7483d3c543530U, 0x3d207a7abcf0c84cU, 0x3d95e904bd723128U,
  0x3dcd18b73d8334bcU, 0xbda6205fbe4076ecU, 0x3b3541703e0e490fU, 0xbc441268be014d2dU,
  0x3c1bb47abdbe84c7U, 0x3cffd1923d224dc2U, 0xbd1c69e0bca330f6U, 0xbd1bdfd93d8f6e19U,
  0xbd7973f33d5e688dU, 0x3d485d8abcb47811U, 0xbd9de115bd47ea98U, 0xbd9d29453d1a87a1U,
  0x3aa4dd933dc19c2eU, 0x3dcc49cf3a566320U, 0x3d5584493c8b225eU, 0xbcae67803c3bc71eU,
  0xbd0551fc3ccdffbcU, 0xbddea8373cf8e36fU, 0xbcf05444bd832459U, 0xbe02cc673c59fcfaU,
  0x3c34c88abcb2bc12U, 0x3d86bb36be3fd80cU, 0xbd6e8a913dd3a7d6U, 0xbd8e35f6bd9eee83U,
  0xbd80eaefbca81a16U, 0xbb2ed378bdfca3e9U, 0x3c953a92bb93c828U, 0x3e0cf8d8bc4b904fU,
  0xbd2598823cb5133aU, 0x3d90f2993af67a60U, 0xbe1be004bd8ed73aU, 0xbded09a8bd5e73ccU,
  0xbdfce9c63dc3302cU, 0x3ddee77abd6bb59aU, 0x3d272cba3dd7f705U, 0x3cfc356e3df8dfe8U,
  0xbd74b427bd1f9f5cU, 0xbceaf771bce5bb7aU, 0xbe2c3f01bc74e99cU, 0xbbcd00533d6c3ac8U,
  0x3dd309023c35ca40U, 0x3c60f6e03d540040U, 0xbb09f6b8baf496b4U, 0xbd6083b23ab06190U,
  0xbd7be46e3dabd374U, 0xbc0cf312bc95269cU, 0x3dced8963cd1c7eeU, 0xbd98685cbd436c56U,
  0x3df273503d00d80aU, 0xbd366cdebc114517U, 0xbdd095123c396938U, 0xbd7774313d470835U,
  0xbd9f86403dc7479fU, 0x3ca98aa0bd4734b6U, 0x3d4162563c93fd84U, 0xbda3dec0bbd9f0f8U,
  0xbe04e232bd89769bU, 0x3d330f52bd096e00U, 0x3da9e9043d255d34U, 0xbd39fdb8bd026a4eU,
  0x3d18f3353d304552U, 0x3e08ee16bd8b847cU, 0xbe0c5bfdbc78a562U, 0xbd0a6fc33caa0f17U,
  0x3cae2da03e0b07d8U, 0xbc0f1a1c3c853950U, 0xbe0c9c63bd22afafU, 0xbd858598bd6eb357U,
  0x3ca87eb2be099a1fU, 0xbdbc8d80bcd40fbaU, 0xbcbf33f43de0aedcU, 0xbd596a37baaf3e00U,
  0x3c3f4eb03bffe208U, 0xbdd915edbd4d213aU, 0xbc1f9ded3c053b1eU, 0x3d390e6cbccd2b8cU,
  0x3d0cb6febc0c808aU, 0xbdc46a883ceb95b6U, 0xbdc7fc10bc81e661U, 0xbdee7a253d6c8aedU,
  0x3dcbc6cebb67c2e0U, 0x3e4fcd593c98b708U, 0x3a9433403d1838daU, 0xbbfbd0d1bcea95b3U,
  0xbc0cfd96bcb82985U, 0x3d5899bd3d0cb20dU, 0xbd9173bebde1df92U, 0xbaf081603d857c56U,
  0xbcd2745fbd3e5416U, 0x3c2950693d26502eU, 0x3d30b8a63d88c0c7U, 0x3e065a493d3a00a8U,
  0x3ddaf51a3e0b4949U, 0xbd5d60043d3b2074U, 0x3dbda69bbd7d2064U, 0x3a060bc03e208fabU,
  0xbd2b69363d954612U, 0x3a5ac020bc4723a8U, 0xbd19b4253d6ee373U, 0xbcd3511e3e0306d7U,
  0x3e138fd93d3698efU, 0x3bac53303d85462aU, 0xbc63f3d6bcddd704U, 0xbd22094cbb5e80c0U,
  0x3b8d3d093d593074U, 0x3c44f1cc3dcf1ffeU, 0xbd85533c3ccc6488U, 0x3aaf517cbd1ef504U,
  0xbd6042513ce31ce8U, 0xbd5b5c73bc6a04d8U, 0xbd6687983dfb7daaU, 0x3e1e62e93d780f90U,
  0x3d84c8edbd83bba6U, 0x3dd4f75a3d82f54bU, 0x3d628781be02b064U, 0xbc96adf6bce27426U,
  0x3e1223dbbd9cc76bU, 0xbd0ad8b23e089b3cU, 0xbd23ceba3d63d0b6U, 0x3df22491bc139b4eU,
  0x3d6487073d16e233U, 0x3d9600b93d3ed3e3U, 0x3cc8a9f4bdbcfb70U, 0x3c2a6fca3d1c89d0U,
  0xbbdda44cba2637e0U, 0xbd2e3db8bc31e536U, 0xbd005f98bcd4f15eU, 0xbdbf37e93e301b78U,
  0xbca5300c3d5153e5U, 0xbe09b49e3db24750U, 0x3cec8b603d650f8eU, 0xbdda62083c782d8bU,
  0xbe1a8906bc9d9af1U, 0x3bd6ccc03d2c501aU, 0xbcda1cf43e038e76U, 0xbdce9a8bbb90f101U,
  0xbdfd64a53e2395c9U, 0x3d9ec9e6bd1faeceU, 0xbda775723a23b576U, 0xbdaddf683cf81cbfU,
  0xbce830a0bb3988c8U, 0x3d42f35cbd66d91aU, 0x3b671ff0bc067459U, 0x3d87b7c3bdaa8110U,
  0xbd8c9010bd6f8c0eU, 0x3e0002773debbf7fU, 0xbd1aeeccbc938d74U, 0x3cb0aee4bddc47f1U,
  0xbd138cfbbd512b6aU, 0x3d69faa3bdaf3f48U, 0xbceb39de3d453ff0U, 0x3c983d74bd011951U,
  0x3db99de83b9d154aU, 0x3d4d0f78bd4c17fcU, 0x3da8aa1e3d3920b8U, 0xbe0da0c63cd8eff0U,
  0xbb12ad7cbdce5c09U, 0xbbe06ab23d45c845U, 0x3e1780e7ba901f60U, 0x3d298fbfbe4615e8U,
  0xbdeb5afb3da11e87U, 0x3d359b623ded3e76U, 0x3d065862bd90fea9U, 0xbc03485f3d65cf30U,
  0xbb6fd0883d2dcdcbU, 0x3d82a9b83dbc6440U, 0xbd7ad9223d432e51U, 0x3b0ac53ebd7f8f98U,
  0xbdbeab3c3dc0beb4U, 0xbc973e38bd0d0217U, 0x3b6c02203d89dc30U, 0xbc0d434cbcedf390U,
  0x3da6ec1c3cfc6343U, 0xbdb324d7bdd61624U, 0x3ddb5450bdf87992U, 0x3ca5eec83de74f58U,
  0xbd2bee003d305d5aU, 0xbcdf483abd8aa41cU, 0x3d147b4c3e0967c8U, 0x3d1e015cbce45a9eU,
  0x3cfb4e2c3c8c78aeU, 0xbd22362fbd854ac7U, 0xbd3ea947bc4bac5eU, 0x3bc7a0b0bc32548eU,
  0xbdebcf80bd1162edU, 0xbda6081abcca5173U, 0xbbe5de7fbc4c77ecU, 0xbd46fba5bc485e53U,
  0xbda752e5ba72f098U, 0x3dd988073d04d276U, 0xbd198504bdb8d65fU, 0x3d1fd8bdbe1590dbU,
  0xbc8e2871bde6fb35U, 0xbe08b9a23d184ee0U, 0xbcd6bb913da1f1bdU, 0x3ab903103c06218cU,
  0xbd5f7f813c9d90d5U, 0xbc55b070bd83aa2cU, 0x3d2798d1bd21a73eU, 0x3d46e3953c2392dcU,
  0x3e1a6476bc0efdd4U, 0xbdddc6873d87981aU, 0xbcffa0be3dbf17b0U, 0x3d327353bd512630U,
  0x3bb1927a3cbc682eU, 0xbcf0ddd2bd8a50e3U, 0xbd5df626bd3de19eU, 0x3d852836be27ebd8U,
  0x3d68360dbd16655cU, 0xbd89379d3ce4646cU, 0x3dae8f56bce64cd0U, 0x3dd5a4623d765ad9U,
  0xbda6581c3da5d967U, 0xbdc2e77dbca16b50U, 0xbba78fccbcd62416U, 0x3cc92940bdb88cb7U,
  0xbcd6c0debde6ba3dU, 0xbbc767703cfbd975U, 0x3cafc3b6bd75ebc2U, 0xbcf322573d78fac4U,
  0xbdc90a59bbdd0708U, 0x3ded2ff6be02918bU, 0xbd8aba243d56b9c2U, 0xbc96477d3d5cdd9aU,
  0xbca40b92be0bd950U, 0xbc9d17da3dedc055U, 0x3d5231ec3da9b436U, 0x3da3a9893dfd90b4U,
  0x3c86d11e3d8d8934U, 0xbd68083cbd6f0236U, 0x3e34d3b9bde93f67U, 0xbd69374abe1f097eU,
  0x3e363548bcc6d51cU, 0xbc81ccbebd3ebf61U, 0x3c077d09bd32f212U, 0x3be1eabebca87179U,
  0xbd7d2c1f3da905cbU, 0x3dbfbbb73db7faacU, 0xbd8e094e3d844e94U, 0x3c88e51cbce005f8U,
  0xbd71eec8bcb41866U, 0xbba352743c76e128U, 0x3d9aa8cc3ddff29aU, 0xbe0d5f023d6fa672U,
  0xbdf0f13ebd1522ecU, 0xbd805c9a3dd70374U, 0xbcb6a5563db9ad6eU, 0x3cd7f9e63cee28ccU,
  0xbc82c586bce5e4ccU, 0xbd42d516bc98968cU, 0x3ca058ffbc940088U, 0xbd0cd7a7bda09fa6U,
  0xbcca4c233d6cba25U, 0x3d2585dc3dd4ca5fU, 0x3cdb14e53cb57cddU, 0x3dcb49523ce1ea88U,
  0x3e1e8da8bdde8f10U, 0x3c3314b83dd09dc9U, 0xbce359fc3dee9bc2U, 0xbd3225a13dd8d062U,
  0xbde9af303d9799a4U, 0x3d8b8ad0bd3dcdf5U, 0x3d3c99fd3e026633U, 0xbc753cfcbdd96f69U,
  0x3ccaa99dbcfa807cU, 0xbd69527bbb7dd508U, 0xbc97c982bdb8bd35U, 0x3c1ec06cbc992a38U,
  0xbc01dd123c2ff388U, 0xbd18e94bbd493dd8U, 0xbdd0a7843c26a052U, 0xbca8b62a3c174e66U,
  0xbdbd1354be498657U, 0xbc6bb7babe43b57dU, 0xbce231b73dba4158U, 0x3db930783d8a3f4aU,
  0x3c90abb8bd8e704dU, 0xbdf9caf2bd15ba51U, 0x3d3948d33ca722c3U, 0xbd4e03dfbc9b3e6bU,
  0xbbb157a83b9081c0U, 0xbdddcd52bc098f80U, 0x3d494eba3cf9d104U, 0xbe143714bbb99d64U,
  0xbd9c99bc3d19f4fbU, 0x3d9f36febde3bc93U, 0x3dbed49abcc5a1aeU, 0xbbc8880d3d39066eU,
  0xbe24d62fbdeca73bU, 0xbd5ae71f3dc5fe25U, 0x3ddbb6debc41ad71U, 0x3d41e60e3e0d1758U,
  0x3d2995503e05ba6fU, 0xbcaacfaabc4aa07cU, 0x3d473bb63d03a435U, 0xbc6f0d14be06fd74U,
  0xbdd1688b3dc10e81U, 0xbd8b214ebd3a5b10U, 0xbd09654e3dc30892U, 0xbd4edc733dece1c6U,
  0x3bfe88e5be29af16U, 0xbd931ecc3d0ef26eU, 0xbc0a34ac3cca1a8eU, 0x3d7612eb3d9a5407U,
  0xbd4904b53c075f5cU, 0xbe4a62a2bd670f0cU, 0xbc9dc7313d7e189dU, 0x3cc85f933d1e26d6U,
  0xbd766ad0bd57a553U, 0xbe000933be11d431U, 0xbd8867c8bdc3fde5U, 0xbc98bcc23d2fd8c1U,
  0x3daf2232bc85da24U, 0xbd1d42a03ca2048fU, 0x3c846c2dbe0b7321U, 0x3dd12e07be0a4bc6U,
  0xbd97b1b73da53361U, 0x3d56c7853de39ca5U, 0xbd534b22bdb11350U, 0x3d1c09143dd3e15bU,
  0x3d24a7ebbd812744U, 0x3de6f7e93ceda2efU, 0xbd81b436bd2c7455U, 0xbdf27b9cbe289d61U,
  0x3cb7beda3da7e81aU, 0x3daa029f3d02e3dbU, 0xbd804aa63bf3c044U, 0xbcd5f6063c92974aU,
  0x3d8ace59bcd2f029U, 0x3c460626bde921c7U, 0xbc929aa5bd08aaf9U, 0x3dc723ef3ce66390U,
  0x3db615783db5e45bU, 0xbcf3951fbcb19f60U, 0x3dc0be99bbfed378U, 0x3d3ea0ec3d38d8baU,
  0x3c9d40203d80f30eU, 0x3d0f428ebdda31e3U, 0x3d5acc123d40a53eU, 0x3c05ea4a3dd8e5d9U,
  0x3b1ab38c3d30cce9U, 0x3dcb97a1bd0e0ff8U, 0x3d449c543c84de58U, 0x3d976632bc1539d6U,
  0xbd7d7be3bd9184f8U, 0x3b2674803bf5283cU, 0xbc98d52b3d894570U, 0xbc8c6d42bd7d38a3U,
  0x3debfe3a3c0d8ecaU, 0xbc69086c3e224991U, 0x3d1730e6bd9724a7U, 0xbb2aa3e03dc47518U,
  0x3e1b4c77bdd12886U, 0xbd4d3e1fbd86d3f4U, 0x3cf9c84ebd8361f5U, 0x3dfcf25a3d51dbc8U,
  0x3dd05979bd8dd9e9U, 0xbd4b8a60be2e5747U, 0xbd4c54b23dfb84b2U, 0x3da65f41bd3e42a3U,
  0x3c97b4323db98c4aU, 0xbdf537fd3d91c4daU, 0xbdad422d3d9207d6U, 0xbd95f193bcdb93b7U,
  0x3d8a0f823d9650a2U, 0x3d9a19153cc45fccU, 0x3c4e18083e7046bfU, 0xbe57120e3dbad80cU,
  0x3d09967ebb3315c0U, 0xbc417f913c6a057bU, 0xbcafa4f3be0ee5e4U, 0xbd57c3cf3cc445d1U,
  0x3cb9f4d4bdf962eeU, 0xbbc411d43cffe3deU, 0x3beb7350be1afc9dU, 0xbcb773983d6bf665U,
  0xbe06c431bdb075f5U, 0x3cafb7f4be03e85fU, 0xbb1e2fe03d6e2ac8U, 0xbe023f653c96ddb6U,
  0x3d9cd684bbcc01e0U, 0x3d93156dbd50a516U, 0xbd33755bbd84c4a6U, 0xbbf66470bdabe666U,
  0x3c1953123cd9296cU, 0xbe0d8677bd76c569U, 0x3be303013d147bb8U, 0xbe016715bce9ed5fU,
  0x3df76a9abd4b1eefU, 0xbb15e1823dc3b1d8U, 0xbdf9e694be05b50aU, 0x3d02ccc93d9a9e48U,
  0xbd9eb08ebc5bbe8cU, 0x3d0448fc3cdb302eU, 0x3cead7e0bc9808e8U, 0x3d800a38bdf69593U,
  0x3d5cfbdd3c8cd442U, 0x3e2c6cb2bd926b22U, 0x3dcdea6bbc804ac3U, 0x3d8fa49c3d51cc1aU,
  0x3e45031e3e04c370U, 0x3c37120abd91c512U, 0x3cb14882bd1b1342U, 0xbd7ee66d3d87640bU,
  0xbd46c0c43dfad390U, 0x3d97711c3d6428c8U, 0xbc0828e03dc6dee5U, 0x3ca704d13c0534d6U,
  0x3d5043ba3d1bafb1U, 0xbd8019e939c00d80U, 0x3d11f25bbd28a12eU, 0xbc877904bc0896e5U,
  0xbd3af28abd4b35b6U, 0x3d37995f3db360b1U, 0x3d89c6b8bd3c58bdU, 0xbcafb1903db89168U,
  0xbd79a52dbb0d60e8U, 0x3d04b6b4bc6d6b18U, 0xbc8b89c6bddac8a0U, 0x3d59d442bcab3bb4U,
  0xbdb5af79bd83b03eU, 0xbce67917bcbdb5beU, 0x3d0d086dbd0e329cU, 0xba895c403c72d624U,
  0xbd3d79a6bcc4bde8U, 0xbda782b93d988901U, 0xbdb8ab303d27c93dU, 0x3defca2bbd93e953U,
  0xbd1dbb683cff60c1U, 0xbd218ca3be084bdbU, 0x3d06fc8f3e0c1541U, 0x3d70de82bd7979a8U,
  0x3cf0bf0e3ddd3bb0U, 0x3d0165453ca59d30U, 0xbcf9a944bdc8f61eU, 0x3cafb010bdcc22f6U,
  0x3d1321a3bc218870U, 0x3e4c6ef73d2d1e15U, 0xbde8d8903ddef05dU, 0x3d85df3cbcc79238U,
  0x3d978c2cbdf8d26cU, 0xbd10491bbd146f29U, 0x3c97d8983cee21aaU, 0xbdd64feabd63e1c4U,
  0x3cfaf620bd2b6462U, 0x3c3465e6bd8930c5U, 0x3cbebb50bd0e0f0aU, 0x3da04066bbf9d1e8U,
  0x3ddf6966bd98804aU, 0xbdbee9ea3ccc0804U, 0x3cccb24bbd9233d5U, 0xbd4589eb3c33db8aU,
  0xbc3c104bbc89600aU, 0x3b5aacb83bd4c4a4U, 0xbe279351bcb50a76U, 0x3d2d52d53dab3b7aU,
  0x3c43f8043dd5748cU, 0xbae6c940bd9d502bU, 0x3d830a5a3d787d97U, 0xbe12202f3d90bce3U,
  0x3d9713bc3dcb611aU, 0xbd62b4403d4e26dbU, 0x3d31cf3cbcdfa855U, 0xbd62aaf4be1cf760U,
  0x3cab462abddaa450U, 0xbcd88049bd046906U, 0x3d12bbfa3c937539U, 0xbcee818abd3f6ce8U,
  0xbd762af5bddee178U, 0xbd47c9443dbf79dbU, 0x3d3f86a23d3fdc64U, 0x3d9296a8bb8febacU,
  0xbda80d2cbc9b3a6eU, 0xbaf364cebcd7af66U, 0xbe1637d9be064190U, 0x3d0cc1d83da83e35U,
  0xbdf1d195bd7e920aU, 0x3d021fb2bc8e8160U, 0x3d9271f03d6be7f3U, 0xbcad58883dee8409U,
  0x3da66b57bdadc2acU, 0x3c53d7ce3d6421d9U, 0x3d412b693d11f0aaU, 0x3c215144bc0233f0U,
  0xbdffc5abbded3eaaU, 0xbbc95d8c3b7a4738U, 0x3d5ee197bcdf9a0aU, 0xbc8449c6bdaca360U,
  0x3e2392103b64a154U, 0x3dd5dd1cbdea88f6U, 0xbe18a4d5bbac43d1U, 0x3c54e1743d9ccf3eU,
  0x3d3662103c24d7f2U, 0x3e0bee073daabb10U, 0xbc11a9b03c28611aU, 0xbdcc80c33c7a78a0U,
  0x3d375ff73d2fa18cU, 0x3d88ec10be3ef0f6U, 0xbcfd9dd8bda00892U, 0x3b0b9378bd4d1638U,
  0xbe27de06bd80ba98U, 0xbd678028bba26868U, 0xbcd400c03c9121bcU, 0x3d95c07dbc9844c7U,
  0xbd5d0b1a3caefdb5U, 0xbdb9aeadbd7ffda6U, 0x3e060bb9bd52c2f0U, 0xbc5b10a83cd275d4U,
  0xbcdfa412bd3c4664U, 0xbd9c09bbbc5c8679U, 0x3d5ca0c3bd88b85fU, 0xbdd468f2bdc481c0U,
  0x3dcf6483bdd23c16U, 0x3b6d3ad2bcee2d18U, 0xbcb2e58d3d70c1aeU, 0x3c602efebd8c0cecU,
  0xbc09b5fbbd20de8aU, 0xbd9367823d5b5cc4U, 0x3d8720a43d749e48U, 0x3db97a443de74c04U,
  0xbdc00da9bcaf192cU, 0xbe00f4bcbdb46125U, 0xbd75e24cbdd546ffU, 0x3e119ece3cebc82cU,
  0xbab9a3b0bd1b78d6U, 0xbbf233a23ce37750U, 0xbd2524503da90d8eU, 0xbca4227abbcfdeacU,
  0x3dac7196bd03e5fcU, 0xbdf0ce2c3c6000c0U, 0xbce874ac3deac179U, 0xbc5dbf823d299887U,
  0xbd3472e23e485c98U, 0x3e3535f7bcd4bbf0U, 0xbd873da23dcacc6aU, 0xbd96c75abd801c58U,
  0xbdd97ce03de08f67U, 0x3d8f24503b3549feU, 0x3dcd05513d993da3U, 0xbd060a4d3d16ac54U,
  0x3cc3aed4be1c22a4U, 0xbd2d38933e0d5862U, 0xba2a9690bd1886faU, 0xbdd32cfa3c1baa28U,
  0x3da35f95bdef01f2U, 0xbd1ab9ee3d77414cU, 0x3b6de7f0bca4b25fU, 0xbdb11bfcbdb8cc6aU,
  0x3e1f307f3d15dd7bU, 0xbc158cbdbd274c5fU, 0xbd891eacbc873262U, 0xbd3bf27f3d8ba9aeU,
  0x3e01a87cbd63091fU, 0x3ce8f8c53d1e9f15U, 0x3d9b2c0d3cdd008eU, 0x3cb123dc3ba2940eU,
  0xbcfba852bda023b1U, 0x3d880c463deca9fdU, 0xbe2f8fafbdce0a5dU, 0xbd1de28f3d7d7856U,
  0xbd7e8aacbd9c0578U, 0xbd9c6528bb89caf8U, 0x3c11f43dbcc920f4U, 0x3c000fcbbd861597U,
  0x3da38257bc4cde30U, 0xbda79b163dc350c2U, 0xbdba5ab03cce6de0U, 0xbe61e992bb10095cU,
  0xbd97f6a1bc736830U, 0xbd2bf0e8bd94edf5U, 0xbdaa564ebc5b49a0U, 0x3cc49ee83d8f6d88U,
  0xbc9e31cebe12c316U, 0x3c856fa3bd014aa2U, 0xbcb1984b3e1a94d0U, 0xbd8c7ae0bd62cbb2U,
  0x3d2289a8bd13add1U, 0xbceb4cb8bd665f75U, 0xbd6adc173c98fa94U, 0xbd59adfabd8b86a9U,
  0x3da085283e1c98a2U, 0xbd3986233c8cd749U, 0xb934a780be2c5524U, 0xbd599445be588103U,
  0xbd9423beb9c13b40U, 0x3da76647bcad20daU, 0xbd8f71233d4aa8cdU, 0xbdef41d0bda5387fU,
  0xbca8446abbff2596U, 0x3d81df95bd1663abU, 0xbd48b10e3d96367aU, 0xbd01c7a0bc578a6aU,
  0x3de5eb813c93fbf2U, 0xbd3cdae0bdae8eb3U, 0x3d578e8a3bb5f630U, 0xbe17dacb3d408a72U,
  0xbc38d708bd21f576U, 0x3e0147bebad6fee0U, 0xbd269574bdca7781U, 0x3d0c376abd0fdbd6U,
  0xbd548127bd06cec3U, 0x3d3b977d3c1e9adaU, 0x3d1813e53d83d537U, 0x3d02f0393d89ff69U,
  0x3dbe670f3d401a60U, 0xbbcd8bf03d53165aU, 0x3da707e73dc4f067U, 0xbc1de6083d8a00c4U,
  0xbc9703d1be4427f2U, 0xbddf7d46be344247U, 0x3d81514abd8d276cU, 0x3d7b5c11bc3ad8c2U,
  0xbdb47681bcf82295U, 0xbe0029c8bd504c85U, 0xbaa92e883d73eb4cU, 0xbc0865be3b3d0f18U,
  0x3d38e2bbbd37cc4dU, 0xbdfd4ebb39869d18U, 0xbbd2fb6ebd4f3d0aU, 0xbd66071c3d88d55dU,
  0xbe3079573dcfb270U, 0xbe2ab4acbd64342bU, 0x3c19ae90bc2636aaU, 0xbd57b22ebc3a09f8U,
  0xbba3d5e83c2d05a4U, 0xbdc2d83a3c8d6c18U, 0x3cf742b93db4fcceU, 0x3d4bebe4bd808e8aU,
  0x3d12e30ebe1664acU, 0x3d4ef6b2bd4277e2U, 0x3c58d386bc687430U, 0xbd2510fabd0dc346U,
  0x3d87878e3c60e3faU, 0x3dbce7a63d5e4bbfU, 0x3e19a510bcc10174U, 0x3c726af03be98d20U,
  0x3c910c43bd9f5f95U, 0x3c7c7c64bd39e52fU, 0xbd96d3aebd07a9d5U, 0x3dc322bd3b8cd46cU,
  0x3d1237193d8a6e10U, 0x3d4ae4d5bd926a20U, 0x3d679c7abd9297d7U, 0xbc6f66f03d0d1505U,
  0x3da9c45a3df3c80fU, 0xbde429d3bc75a4f5U, 0x3e2c1fd63e0d5b59U, 0x3d077bfb3ccf513cU,
  0x3db6aabd3d9c4fceU, 0x3d7c32ac3a892540U, 0x3d95d6a83d1124f2U, 0xbd57a9933bd5f1acU,
  0x3d4afb79bdd6fd41U, 0x3bc98518bd91e4a2U, 0x3d3e4ebebd7c36aeU, 0xbd8217f03c8f3a1aU,
  0x3d47d46a3c043258U, 0x3cd199c63de2febdU, 0x3dd49aca3c352548U, 0x3ccee851bbee09f8U,
  0x3d4c1d80bbe9406aU, 0x3d2978063d85938eU, 0xbd29dfebbdfc988eU, 0x3c5e00b83d2f124eU,
  0xbd39605ebdf25bf5U, 0x3cc6878a3dce8c82U, 0x3d026cba3defd165U, 0xbd61aa26be0948cfU,
  0xbd9e67063d3d9c57U, 0x3ce3b122bd83d99fU, 0xbd5aa37e3b48a750U, 0xbd95d34fbc7dbf3cU,
  0xbd3e66aabc6a4854U, 0xbdd0b42d3d68ed2cU, 0xbd344bc4bd619941U, 0xbd8ef5613dd6f97eU,
  0x3d8f647fbe3ba89fU, 0xbd0e1c45bcfc896fU, 0xbdef6f153daae30dU, 0xbbc8dd08bd44c8bcU,
  0xbb8b8604bcbec6deU, 0x3d14f9363cf36664U, 0x3d2369403c07b250U, 0x3cdbfe22bc707830U,
  0x3e1deae8bccb7d65U, 0x3cd21e153d08f32aU, 0xbd08beff3b9a6bf1U, 0xbc98ead03da1a86bU,
  0x3c3c71223d864c28U, 0xbd0b409a3b4ab394U, 0xbd7d29c23d80d813U, 0xbda81642bc94b959U,
  0x3dac84093b4fd46cU, 0x3c9b82963cf5b756U, 0xbc81962e3dbb2519U, 0x3c4c8f16bcd05797U,
  0x3bac5d523d436c86U, 0xbc1e8eaabcce8305U, 0xbdcc0ec13d161b84U, 0xbd8976253d852e75U,
  0xbd3f72263d748a7fU, 0xbd8ae240bca391c0U, 0x3d54f77ebc1b9264U, 0x3deb9afb3df0e763U,
  0x3c93af2d3d7ad098U, 0x3dce08743c77256cU, 0xbd896f723d23f1e4U, 0xbdc436563d546aa8U,
  0xbc2d3c68bd1f933aU, 0xbd297f773dbacf77U, 0xbd71a91a3dea71fbU, 0x3c857490bd99975fU,
  0x3de46191bda627c2U, 0xbcb6a9ab3e2074c2U, 0x3d82f4b33d7e0aacU, 0x3d98ad683c167e76U,
  0x3cd393583c9a0df8U, 0xbb9b2f303d0ff722U, 0x3d7fcb74bbf0c430U, 0x3d4b7ec43d49b2fcU,
  0xbd0dcb0b3d2a5749U, 0x3cb5f8e2bcb124e2U, 0x3c107158bd2ad23aU, 0x3d69e3c43e4be70eU,
  0xbd60dfde3da3d9e5U, 0x3d8f328a3e24f17cU, 0x3e042ef4be2b0b33U, 0x3da1e9ae3e1564d7U,
  0xbd51a83a3e11229fU, 0xbd4acf82bcb4d856U, 0x3dc52abe3d81ba95U, 0xbd1b5aa0bcaf016cU,
  0x3c818d323c9c6b7aU, 0xbd046966bda5b564U, 0xbd20a5e8bcba125eU, 0x3d1869d3b9aaac70U,
  0xbd2526643d4db99cU, 0x3d713eacbd45b0faU, 0x3dc915b6bc85c2ccU, 0xbd9b26cb3db2401aU,
  0xbd0ae0323daa4943U, 0x3d149b7c3c68c7c0U, 0xbb8075a5bc9ae76aU, 0x3db486ce3cba2f65U,
  0xbbd2aba43d509dcdU, 0xbde2e8923df8d679U, 0x3dce41113d94439dU, 0xbc0cbb023cf74b3fU,
  0x3c94ed4abe4543cdU, 0x3d18d1a43dbd02e5U, 0x3d07ed12bcc03a56U, 0x3d2e8c7c3cc5141aU,
  0x3df24e463d1092deU, 0x3db26239bd142486U, 0x3c9f21683dae96afU, 0xbbe4358a3cb4e6fdU,
  0x3ca414f8bd9bf8dcU, 0x3cadf45ebd78cf20U, 0xbcd1e8e8bd114665U, 0xbd9c87853d96e55aU,
  0x3e012b2d3d504d2eU, 0x3d80d3cdbd42c91dU, 0xbd89d1693e22f634U, 0x3daac7adbce63adeU,
  0x3d15d7d3be01a4baU, 0xbdbcbbe2bd729a8bU, 0x3d46a5c23e11caa9U, 0xbc23a1f8bd4835edU,
  0xbcc971d2bc03d884U, 0xbd3be5c43d6bbb67U, 0xbd2bdedbbdc37ae4U, 0xbcf7d1a83cef394eU,
  0x3d7aaa5fbd6408a3U, 0x3db883113c32a48cU, 0x3d45b208bdb78330U, 0x3b97ebb0bd287c3eU,
  0xbdc444c53cc87fdeU, 0xbd3a6b1bbdac40a3U, 0xbca6d1b5bbfd7058U, 0xbd685d5f3d235905U,
  0xbab04960bdb0d56eU, 0xbcdfee203d5639f2U, 0xbde32fb43c9b7ac4U, 0x3b4c53103d06eb92U,
  0x3daab76abd173b4fU, 0xbc23c50e3e0a125dU, 0xbd04ca8a3db45ec9U, 0xbd42fc1ebcc8aa4fU,
  0xbd55a528bce3e7cfU, 0x3d034c5d3d5da1ccU, 0xbd8f5bce3da2f68bU, 0x3cbc6c7fbe4456d2U,
  0xbc828e4abbc5fcceU, 0xbb3aabf03d07eb76U, 0xbcd90a443cc902b8U, 0x3a2503e0bd0db22eU,
  0xbc9f61283d6e1616U, 0xbd918e243cdd2ae4U, 0x3cc793203d505eafU, 0xbb2659c03e190f45U,
  0x3cd36a553d0d3d22U, 0x3dd3a23c3d1309e3U, 0x3ccc546bbda7a606U, 0x3d837f383dc1c7e2U,
  0x3d2f56ec3bca91dcU, 0xbd4f84223c022fd8U, 0x3de4e227bc93a9f2U, 0xbd9781a23e3442bdU,
  0xbd94c6993d79ec3aU, 0xbd8b2f383bbfc7c4U, 0xbd673fa8bca925d2U, 0xbcc885dc3daa9564U,
  0xbd7fdf9ebce5eccfU, 0xbdc60e7e3d33174cU, 0x3bd7c78c3ce974beU, 0x3c024ac3bcf89199U,
  0xbcc316e03d8b7126U, 0x3da11c7c3cb28d56U, 0xbdd9f7b1bc7c0902U, 0x3c184f32bd5734daU,
  0xbd7547babe396978U, 0xbd1a3fcc3dd3b1f5U, 0x3c8f7aa03c9d36fdU, 0xbd3f032cbdd29033U,
  0x3d90544a3d83a718U, 0xbd9c40123d85155eU, 0xbb505d883cd9fa9aU, 0x3b3532c03d423706U,
  0xbd8814293d95f009U, 0x3b29612c3df29720U, 0xbe1cb1bb3de9ff36U, 0x3d99a184bd29a0c2U,
  0x3ca3ea3dbc387668U, 0x3d13ca983d1e8708U, 0xbd694e093d0ecba3U, 0xbd5d2dea3d2d58f9U,
  0xbd3a75653ce2e45aU, 0xbd85273abca4c742U, 0x3b12815abca7ae0cU, 0x3e406fd43d946270U,
  0xbd704d68bc93159eU, 0xbd1a4e343bd3bbc8U, 0x3c555e573a7ebd00U, 0x3db3bf9ebcbcdc10U,
  0x3dfe58cf3c117b22U, 0x3c98d0b63d69f66bU, 0x3cfe93343c19e7a2U, 0xbd1a44dc3dc89c0cU,
  0xbcfbb9a4bdb421e0U, 0x3d8c8e08bc504b80U, 0xbd7855b43cdcfabbU, 0x3dab74523cc80478U,
  0x3d0e9f423a1095a0U, 0xbd7e03093cc6cd90U, 0x3cc36a40bd9a8bf4U, 0xbcc4ae76bc1f6bb2U,
  0xbdecef3c3d63665aU, 0x3b9a1ed43ddd6226U, 0xbd7c5a07bcd1fb92U, 0xbc919f55bda2fad9U,
  0x3dc80188bdb1cd7dU, 0xbd33ddbcbcca9a4cU, 0xbd8212bfbbaf26d0U, 0x3d089500bd84e521U,
  0xbcaee150bdd0d28cU, 0x3db96ec5bc688a4cU, 0xbe0a1770bcb3e4f9U, 0xbd336e0abc1d8a8eU,
  0xbdd8700a3d5e3e03U, 0x3d4b4d6c3d093ef4U, 0x3e0e6e093d54fcfcU, 0x3d8f91a63e058987U,
